{
  "version": "1.0",
  "truncation": null,
  "padding": null,
  "added_tokens": [
    {
      "id": 0,
      "content": "<pad>",
      "single_word": false,
      "lstrip": false,
      "rstrip": false,
      "normalized": false,
      "special": true
    },
    {
      "id": 1,
      "content": "<unk>",
      "single_word": false,
      "lstrip": false,
      "rstrip": false,
      "normalized": false,
      "special": true
    },
    {
      "id": 2,
      "content": "<s>",
      "single_word": false,
      "lstrip": false,
      "rstrip": false,
      "normalized": false,
      "special": true
    },
    {
      "id": 3,
      "content": "</s>",
      "single_word": false,
      "lstrip": false,
      "rstrip": false,
      "normalized": false,
      "special": true
    }
  ],
  "normalizer": null,
  "pre_tokenizer": {
    "type": "ByteLevel",
    "add_prefix_space": false,
    "trim_offsets": true,
    "use_regex": true
  },
  "post_processor": {
    "type": "ByteLevel",
    "add_prefix_space": true,
    "trim_offsets": false,
    "use_regex": true
  },
  "decoder": {
    "type": "ByteLevel",
    "add_prefix_space": true,
    "trim_offsets": true,
    "use_regex": true
  },
  "model": {
    "type": "BPE",
    "dropout": null,
    "unk_token": null,
    "continuing_subword_prefix": null,
    "end_of_word_suffix": null,
    "fuse_unk": false,
    "byte_fallback": false,
    "ignore_merges": false,
    "vocab": {
      "<pad>": 0,
      "<unk>": 1,
      "<s>": 2,
      "</s>": 3,
      "!": 4,
      "\"": 5,
      "#": 6,
      "$": 7,
      "%": 8,
      "&": 9,
      "'": 10,
      "(": 11,
      ")": 12,
      "*": 13,
      "+": 14,
      ",": 15,
      "-": 16,
      ".": 17,
      "/": 18,
      "0": 19,
      "1": 20,
      "2": 21,
      "3": 22,
      "4": 23,
      "5": 24,
      "6": 25,
      "7": 26,
      "8": 27,
      "9": 28,
      ":": 29,
      ";": 30,
      "<": 31,
      "=": 32,
      ">": 33,
      "?": 34,
      "@": 35,
      "A": 36,
      "B": 37,
      "C": 38,
      "D": 39,
      "E": 40,
      "F": 41,
      "G": 42,
      "H": 43,
      "I": 44,
      "J": 45,
      "K": 46,
      "L": 47,
      "M": 48,
      "N": 49,
      "O": 50,
      "P": 51,
      "Q": 52,
      "R": 53,
      "S": 54,
      "T": 55,
      "U": 56,
      "V": 57,
      "W": 58,
      "X": 59,
      "Y": 60,
      "Z": 61,
      "[": 62,
      "\\": 63,
      "]": 64,
      "^": 65,
      "_": 66,
      "`": 67,
      "a": 68,
      "b": 69,
      "c": 70,
      "d": 71,
      "e": 72,
      "f": 73,
      "g": 74,
      "h": 75,
      "i": 76,
      "j": 77,
      "k": 78,
      "l": 79,
      "m": 80,
      "n": 81,
      "o": 82,
      "p": 83,
      "q": 84,
      "r": 85,
      "s": 86,
      "t": 87,
      "u": 88,
      "v": 89,
      "w": 90,
      "x": 91,
      "y": 92,
      "z": 93,
      "{": 94,
      "|": 95,
      "}": 96,
      "~": 97,
      "¡": 98,
      "¢": 99,
      "£": 100,
      "¤": 101,
      "¥": 102,
      "¦": 103,
      "§": 104,
      "¨": 105,
      "©": 106,
      "ª": 107,
      "«": 108,
      "¬": 109,
      "®": 110,
      "¯": 111,
      "°": 112,
      "±": 113,
      "²": 114,
      "³": 115,
      "´": 116,
      "µ": 117,
      "¶": 118,
      "·": 119,
      "¸": 120,
      "¹": 121,
      "º": 122,
      "»": 123,
      "¼": 124,
      "½": 125,
      "¾": 126,
      "¿": 127,
      "À": 128,
      "Á": 129,
      "Â": 130,
      "Ã": 131,
      "Ä": 132,
      "Å": 133,
      "Æ": 134,
      "Ç": 135,
      "È": 136,
      "É": 137,
      "Ê": 138,
      "Ë": 139,
      "Ì": 140,
      "Í": 141,
      "Î": 142,
      "Ï": 143,
      "Ð": 144,
      "Ñ": 145,
      "Ò": 146,
      "Ó": 147,
      "Ô": 148,
      "Õ": 149,
      "Ö": 150,
      "×": 151,
      "Ø": 152,
      "Ù": 153,
      "Ú": 154,
      "Û": 155,
      "Ü": 156,
      "Ý": 157,
      "Þ": 158,
      "ß": 159,
      "à": 160,
      "á": 161,
      "â": 162,
      "ã": 163,
      "ä": 164,
      "å": 165,
      "æ": 166,
      "ç": 167,
      "è": 168,
      "é": 169,
      "ê": 170,
      "ë": 171,
      "ì": 172,
      "í": 173,
      "î": 174,
      "ï": 175,
      "ð": 176,
      "ñ": 177,
      "ò": 178,
      "ó": 179,
      "ô": 180,
      "õ": 181,
      "ö": 182,
      "÷": 183,
      "ø": 184,
      "ù": 185,
      "ú": 186,
      "û": 187,
      "ü": 188,
      "ý": 189,
      "þ": 190,
      "ÿ": 191,
      "Ā": 192,
      "ā": 193,
      "Ă": 194,
      "ă": 195,
      "Ą": 196,
      "ą": 197,
      "Ć": 198,
      "ć": 199,
      "Ĉ": 200,
      "ĉ": 201,
      "Ċ": 202,
      "ċ": 203,
      "Č": 204,
      "č": 205,
      "Ď": 206,
      "ď": 207,
      "Đ": 208,
      "đ": 209,
      "Ē": 210,
      "ē": 211,
      "Ĕ": 212,
      "ĕ": 213,
      "Ė": 214,
      "ė": 215,
      "Ę": 216,
      "ę": 217,
      "Ě": 218,
      "ě": 219,
      "Ĝ": 220,
      "ĝ": 221,
      "Ğ": 222,
      "ğ": 223,
      "Ġ": 224,
      "ġ": 225,
      "Ģ": 226,
      "ģ": 227,
      "Ĥ": 228,
      "ĥ": 229,
      "Ħ": 230,
      "ħ": 231,
      "Ĩ": 232,
      "ĩ": 233,
      "Ī": 234,
      "ī": 235,
      "Ĭ": 236,
      "ĭ": 237,
      "Į": 238,
      "į": 239,
      "İ": 240,
      "ı": 241,
      "Ĳ": 242,
      "ĳ": 243,
      "Ĵ": 244,
      "ĵ": 245,
      "Ķ": 246,
      "ķ": 247,
      "ĸ": 248,
      "Ĺ": 249,
      "ĺ": 250,
      "Ļ": 251,
      "ļ": 252,
      "Ľ": 253,
      "ľ": 254,
      "Ŀ": 255,
      "ŀ": 256,
      "Ł": 257,
      "ł": 258,
      "Ń": 259,
      "es": 260,
      "on": 261,
      "Ġd": 262,
      "en": 263,
      "ti": 264,
      "Ġa": 265,
      "Ã©": 266,
      "Ġt": 267,
      "Ġl": 268,
      "in": 269,
      "er": 270,
      "Ġp": 271,
      "re": 272,
      "an": 273,
      "Ġc": 274,
      "Ġs": 275,
      "tion": 276,
      "Ġth": 277,
      "or": 278,
      "Ġde": 279,
      "is": 280,
      "ent": 281,
      "ou": 282,
      "it": 283,
      "Ġthe": 284,
      "al": 285,
      "ar": 286,
      "Ġe": 287,
      "Ġo": 288,
      "ation": 289,
      "qu": 290,
      "Ġf": 291,
      "Ġm": 292,
      "ro": 293,
      "Ġin": 294,
      "at": 295,
      "Ġof": 296,
      "le": 297,
      "ment": 298,
      "Ġan": 299,
      "ic": 300,
      "ur": 301,
      "om": 302,
      "Ġla": 303,
      "ed": 304,
      "Ġb": 305,
      "un": 306,
      "Ġn": 307,
      "il": 308,
      "Ġr": 309,
      "Ġw": 310,
      "Ġand": 311,
      "ĠC": 312,
      "âĢ": 313,
      "Ġet": 314,
      "el": 315,
      "Ġdes": 316,
      "Ġto": 317,
      "ec": 318,
      "Ġre": 319,
      "ra": 320,
      "ĠÃ": 321,
      "as": 322,
      "Ġle": 323,
      "Ġcon": 324,
      "ce": 325,
      "si": 326,
      "Ġles": 327,
      "Ġpro": 328,
      "Ġqu": 329,
      "te": 330,
      "ing": 331,
      "our": 332,
      "us": 333,
      "Ġen": 334,
      "ĠÃł": 335,
      "ant": 336,
      "ri": 337,
      "ol": 338,
      "ir": 339,
      "Ġh": 340,
      "et": 341,
      "Ġau": 342,
      "âĢĻ": 343,
      "ve": 344,
      "Ġpar": 345,
      "ĠS": 346,
      "Ġun": 347,
      "Ġv": 348,
      "Ġdu": 349,
      "Ġg": 350,
      "Ġ(": 351,
      "ch": 352,
      "ul": 353,
      "ter": 354,
      "Ã¨": 355,
      "pp": 356,
      "ci": 357,
      "ad": 358,
      "Ã©s": 359,
      "00": 360,
      "ta": 361,
      "ĠA": 362,
      "Ġcom": 363,
      "Ġ1": 364,
      "ĠP": 365,
      "ans": 366,
      "Ġ2": 367,
      "me": 368,
      "Ġfor": 369,
      "ement": 370,
      "tr": 371,
      "ig": 372,
      "mp": 373,
      "os": 374,
      "ĠÃ©": 375,
      "Ġon": 376,
      "ers": 377,
      "au": 378,
      "ort": 379,
      "ĠM": 380,
      "id": 381,
      "ations": 382,
      "ag": 383,
      "est": 384,
      "ire": 385,
      "ess": 386,
      "ac": 387,
      "bl": 388,
      "ĠdÃ©": 389,
      "ff": 390,
      "ons": 391,
      "th": 392,
      "Ġpr": 393,
      "Th": 394,
      "Ġpour": 395,
      "Ġex": 396,
      "Ġsu": 397,
      "ĠR": 398,
      "ver": 399,
      "op": 400,
      "ĠD": 401,
      "que": 402,
      "Ġbe": 403,
      "ĠI": 404,
      "ab": 405,
      "tu": 406,
      "and": 407,
      "tin": 408,
      "ie": 409,
      "tÃ©": 410,
      "Ġis": 411,
      "Ġac": 412,
      "tre": 413,
      "Ġsur": 414,
      "ate": 415,
      "Ġor": 416,
      "Ġas": 417,
      "Ġdans": 418,
      "end": 419,
      "Ġque": 420,
      "Ġthat": 421,
      "em": 422,
      "ts": 423,
      "itÃ©": 424,
      "ĠL": 425,
      "di": 426,
      "ĠN": 427,
      "ĠE": 428,
      "Ġpl": 429,
      "ous": 430,
      "Ġ200": 431,
      "sion": 432,
      "ĠrÃ©": 433,
      "Ã©r": 434,
      "ati": 435,
      "ith": 436,
      "li": 437,
      "omm": 438,
      "The": 439,
      "du": 440,
      "ay": 441,
      "ly": 442,
      "ĠT": 443,
      "Ġch": 444,
      "tions": 445,
      "ont": 446,
      "iv": 447,
      "ĠB": 448,
      "Ġno": 449,
      "ance": 450,
      "vel": 451,
      "for": 452,
      "Ġcomp": 453,
      "um": 454,
      "tic": 455,
      "lo": 456,
      "anad": 457,
      "ĠF": 458,
      "Ġwith": 459,
      "ity": 460,
      "Ġi": 461,
      "ĠG": 462,
      "Ġou": 463,
      "Ġres": 464,
      "Ã©e": 465,
      "am": 466,
      "res": 467,
      "onn": 468,
      "ence": 469,
      "ational": 470,
      "Ġj": 471,
      "oc": 472,
      "Ġwh": 473,
      "Âł": 474,
      "Ġal": 475,
      "Ġqui": 476,
      "Ġmo": 477,
      "iti": 478,
      "ain": 479,
      "Ġune": 480,
      "ion": 481,
      "ces": 482,
      "Ġav": 483,
      "its": 484,
      "oun": 485,
      "ure": 486,
      "Ġapp": 487,
      "urs": 488,
      "erv": 489,
      "ill": 490,
      "ting": 491,
      "Ġne": 492,
      "de": 493,
      "ens": 494,
      "Ġse": 495,
      "Ġby": 496,
      "ut": 497,
      "ist": 498,
      "ne": 499,
      "ĠCanad": 500,
      "tat": 501,
      "form": 502,
      "Ġinter": 503,
      "Ġcons": 504,
      "Ã©es": 505,
      "cl": 506,
      "Ġcomm": 507,
      "Ġad": 508,
      "fic": 509,
      "Ġaux": 510,
      "Ġare": 511,
      "Ġest": 512,
      "Ġtra": 513,
      "les": 514,
      "ques": 515,
      "st": 516,
      "Ġat": 517,
      "ue": 518,
      "âĢ¨": 519,
      "ven": 520,
      "Ġfa": 521,
      "ap": 522,
      "der": 523,
      "ĠU": 524,
      "min": 525,
      "Ġimp": 526,
      "ĠO": 527,
      "mes": 528,
      "gra": 529,
      "ct": 530,
      "ge": 531,
      "Ġso": 532,
      "Ġdis": 533,
      "ere": 534,
      "Ġy": 535,
      "able": 536,
      "rou": 537,
      "ais": 538,
      "ction": 539,
      "ĠH": 540,
      "ale": 541,
      "pec": 542,
      "Ġ19": 543,
      "ĠComm": 544,
      "im": 545,
      "pe": 546,
      "ĠIn": 547,
      "app": 548,
      "ies": 549,
      "ten": 550,
      "Ġper": 551,
      "ments": 552,
      "ble": 553,
      "pr": 554,
      "aux": 555,
      "Ã©c": 556,
      "air": 557,
      "ord": 558,
      "Ã¨re": 559,
      "ard": 560,
      "ĠCanada": 561,
      "ld": 562,
      "Ġ3": 563,
      "Ġpas": 564,
      "ign": 565,
      "ber": 566,
      "age": 567,
      "ubl": 568,
      "gram": 569,
      "Ġpe": 570,
      "elle": 571,
      "Ã©n": 572,
      "rom": 573,
      "ique": 574,
      "igh": 575,
      "ervic": 576,
      "gan": 577,
      "ow": 578,
      "Ġtr": 579,
      "ants": 580,
      "tiv": 581,
      "ex": 582,
      "og": 583,
      "ux": 584,
      "ud": 585,
      "__": 586,
      "aire": 587,
      "rÃ©": 588,
      "Ãª": 589,
      "ient": 590,
      "Ġce": 591,
      "Ġsh": 592,
      "Ġrec": 593,
      "od": 594,
      "ich": 595,
      "ite": 596,
      "ari": 597,
      "port": 598,
      "tri": 599,
      "oin": 600,
      "out": 601,
      "Ġparti": 602,
      "Ġ-": 603,
      "ond": 604,
      "ĠW": 605,
      "ission": 606,
      "ures": 607,
      "Ġco": 608,
      "vern": 609,
      "Ġacc": 610,
      "tive": 611,
      "Ġeff": 612,
      "ary": 613,
      "Ġnot": 614,
      "Ã©g": 615,
      "cial": 616,
      "Ġplus": 617,
      "cip": 618,
      "national": 619,
      "entre": 620,
      "Ġfin": 621,
      "par": 622,
      "une": 623,
      "ork": 624,
      "Ġprov": 625,
      "Ġfrom": 626,
      "Ġpol": 627,
      "ated": 628,
      "ph": 629,
      "Ġsont": 630,
      "Ġsec": 631,
      "ak": 632,
      "ould": 633,
      "ang": 634,
      "aires": 635,
      "Ġdi": 636,
      "âĢ¢": 637,
      "lement": 638,
      "tif": 639,
      "all": 640,
      "ise": 641,
      "se": 642,
      "cer": 643,
      "Ġpers": 644,
      "uro": 645,
      "ĠUn": 646,
      "Le": 647,
      "ĠJ": 648,
      "ther": 649,
      "bre": 650,
      "Ġwas": 651,
      "Ġsa": 652,
      "ine": 653,
      "ien": 654,
      "iz": 655,
      "ss": 656,
      "per": 657,
      "ear": 658,
      "Ġha": 659,
      "Ã¨s": 660,
      "ail": 661,
      "Ġag": 662,
      "titu": 663,
      "pos": 664,
      "tain": 665,
      "itÃ©s": 666,
      "Ġservic": 667,
      "Ġit": 668,
      "Ġrel": 669,
      "Ġthis": 670,
      "In": 671,
      "Ġar": 672,
      "ors": 673,
      "pÃ©": 674,
      "Ġ4": 675,
      "ace": 676,
      "Ġproc": 677,
      ").": 678,
      "Ġme": 679,
      "Ġprogram": 680,
      "),": 681,
      "ĠâĢ": 682,
      "Ġprodu": 683,
      "jec": 684,
      "Ġass": 685,
      "lic": 686,
      "ĠÂ": 687,
      "Ġont": 688,
      "Ġpre": 689,
      "ution": 690,
      "oir": 691,
      "ted": 692,
      "ier": 693,
      "Ġreg": 694,
      "iss": 695,
      "Ġwhich": 696,
      "ĠPro": 697,
      "ves": 698,
      "Ġpubl": 699,
      "Ġ5": 700,
      "formation": 701,
      "ĠÃ©tÃ©": 702,
      "velop": 703,
      "Ġmar": 704,
      "Ġhave": 705,
      "Ġavec": 706,
      "ements": 707,
      "Ġ:": 708,
      "Ġwill": 709,
      "til": 710,
      "Ġins": 711,
      "Ã©sent": 712,
      "ait": 713,
      "ĠprÃ©": 714,
      "Ġman": 715,
      "Ġdo": 716,
      "con": 717,
      "Ġ199": 718,
      "ities": 719,
      "ents": 720,
      "Ġits": 721,
      "Ġter": 722,
      "Ġsy": 723,
      "ore": 724,
      "osi": 725,
      "tru": 726,
      "Ġcommun": 727,
      "ĠRe": 728,
      "200": 729,
      "ays": 730,
      "ech": 731,
      "Ġtrans": 732,
      "Les": 733,
      "Ġob": 734,
      "Ġorgan": 735,
      "Ġus": 736,
      "Ġinternational": 737,
      "ase": 738,
      "ide": 739,
      "Ġti": 740,
      "Ġsub": 741,
      "up": 742,
      "tres": 743,
      "bil": 744,
      "ture": 745,
      "isation": 746,
      "Ġpos": 747,
      "ong": 748,
      "..": 749,
      "Ġpri": 750,
      "tes": 751,
      "ette": 752,
      "ish": 753,
      "jet": 754,
      "ice": 755,
      "av": 756,
      "Ġhas": 757,
      "ial": 758,
      "ision": 759,
      "ĠV": 760,
      "Ġses": 761,
      "Ġli": 762,
      "emp": 763,
      "fer": 764,
      "eral": 765,
      "ell": 766,
      "che": 767,
      "Ġdro": 768,
      "Ã´": 769,
      "ues": 770,
      "Ġmon": 771,
      "Ġam": 772,
      "ours": 773,
      "ĠCommission": 774,
      "Ã©ri": 775,
      "ult": 776,
      "Ã¨me": 777,
      "Ġsou": 778,
      "ot": 779,
      "iques": 780,
      "gh": 781,
      "Ġil": 782,
      "Ġmin": 783,
      "tabl": 784,
      "'s": 785,
      "Ġtheir": 786,
      "Ġall": 787,
      "are": 788,
      "ative": 789,
      "ĠCh": 790,
      "ip": 791,
      "ĠCon": 792,
      "ĠrÃ©s": 793,
      "Ġtrav": 794,
      "La": 795,
      "Ġcl": 796,
      "Ġconcer": 797,
      "ins": 798,
      "Ġ6": 799,
      "olog": 800,
      "ĠÃª": 801,
      "Ġentre": 802,
      "els": 803,
      "Ġes": 804,
      "ia": 805,
      "Ġhe": 806,
      "Ġservices": 807,
      "fin": 808,
      "Ġdevelop": 809,
      "so": 810,
      "ĠÃªtre": 811,
      "vir": 812,
      "ales": 813,
      "Ġmem": 814,
      "estion": 815,
      "Ġnational": 816,
      "Ġpersonn": 817,
      "tem": 818,
      "ome": 819,
      "Ġrequ": 820,
      "ĠrÃ©g": 821,
      "Ġind": 822,
      "Ġform": 823,
      "rit": 824,
      "Ġsupp": 825,
      "ĠK": 826,
      "Ġwork": 827,
      "Ġdem": 828,
      "ection": 829,
      "ited": 830,
      "ach": 831,
      "tra": 832,
      "gr": 833,
      "echn": 834,
      "ions": 835,
      "ticle": 836,
      "conom": 837,
      "ĠPar": 838,
      "ĠgÃ©n": 839,
      "ĠNations": 840,
      "tor": 841,
      "Ã©d": 842,
      "sid": 843,
      "vention": 844,
      "elles": 845,
      "tats": 846,
      "Ġstr": 847,
      "Ġincl": 848,
      "bles": 849,
      "cc": 850,
      "overn": 851,
      "Ġdiff": 852,
      "Ġsi": 853,
      "enti": 854,
      "Ġrapp": 855,
      "Ġdire": 856,
      "Ġab": 857,
      "ust": 858,
      "uation": 859,
      "opp": 860,
      "ty": 861,
      "val": 862,
      "Ġactiv": 863,
      "ass": 864,
      "Ġcol": 865,
      "Ġwe": 866,
      "loy": 867,
      "duc": 868,
      "Ġother": 869,
      "ile": 870,
      "vent": 871,
      "____": 872,
      "Ġimport": 873,
      "Ġpays": 874,
      "to": 875,
      "ical": 876,
      "Ġnon": 877,
      "Ġinc": 878,
      "ON": 879,
      "ke": 880,
      "Ġpublic": 881,
      "Ġcoun": 882,
      "low": 883,
      "ille": 884,
      "cri": 885,
      "urope": 886,
      "Ġser": 887,
      "Ġbeen": 888,
      "onse": 889,
      "gal": 890,
      "sions": 891,
      "ocu": 892,
      "ticul": 893,
      "Ġalso": 894,
      "Ġappro": 895,
      "En": 896,
      "Ġunder": 897,
      "Ġvo": 898,
      "Ġleur": 899,
      "Ãī": 900,
      "Ġemp": 901,
      "Ġfac": 902,
      "velopp": 903,
      "Ġces": 904,
      "lec": 905,
      "Ġ\"": 906,
      "Un": 907,
      "ian": 908,
      "Ġresp": 909,
      "ai": 910,
      "ĠgÃ©nÃ©r": 911,
      "ande": 912,
      "Ġ9": 913,
      "ources": 914,
      "Ġnom": 915,
      "ĠÃī": 916,
      "ĠprÃ©sent": 917,
      "Ġperm": 918,
      "Ġexp": 919,
      "ĠDe": 920,
      "Ġdev": 921,
      "Ġ7": 922,
      "roup": 923,
      "Ġparticul": 924,
      "Ġconcern": 925,
      "Ã¨res": 926,
      "Ġcer": 927,
      "ĠCom": 928,
      "Ġmil": 929,
      "iÃ¨re": 930,
      "Ġgr": 931,
      "teur": 932,
      "ild": 933,
      "ĠSec": 934,
      "ose": 935,
      "cep": 936,
      "Il": 937,
      "Ġtechn": 938,
      "Ġconf": 939,
      "ive": 940,
      "Ġ0": 941,
      "Ġcette": 942,
      "Ã§": 943,
      "oint": 944,
      "Ġson": 945,
      "Ġ8": 946,
      "Ġcan": 947,
      "Ġwere": 948,
      "fication": 949,
      "ĠdÃ©velopp": 950,
      "Ġparticip": 951,
      "Ġdonn": 952,
      "olution": 953,
      "ouvern": 954,
      "Ġst": 955,
      "Ġrapport": 956,
      "ences": 957,
      "Ġann": 958,
      "ric": 959,
      "alth": 960,
      "lÃ©": 961,
      "Ġsit": 962,
      "eneral": 963,
      "Ġtout": 964,
      "Ġprocess": 965,
      "ese": 966,
      "ob": 967,
      "itte": 968,
      "Ġinformation": 969,
      "util": 970,
      "one": 971,
      "Ġcar": 972,
      "istr": 973,
      "Ġmemb": 974,
      "ises": 975,
      "oi": 976,
      "trib": 977,
      "tro": 978,
      "Ġsta": 979,
      "dition": 980,
      "ES": 981,
      "Ġhum": 982,
      "Ġfinan": 983,
      "ĠdÃ©c": 984,
      "Ġpart": 985,
      "Ġprin": 986,
      "raph": 987,
      "Ġcap": 988,
      "Ġrep": 989,
      "Ġprot": 990,
      "ivers": 991,
      "Ġmes": 992,
      "ĠThe": 993,
      "ĠÂ«": 994,
      "Ġreport": 995,
      "Ġeffec": 996,
      "Ġtravail": 997,
      "Ġop": 998,
      "ress": 999,
      "ois": 1000,
      "Ġdocu": 1001,
      "ĠEurope": 1002,
      "Ġshould": 1003,
      "ui": 1004,
      "Ġnous": 1005,
      "oci": 1006,
      "Ġcomme": 1007,
      "iew": 1008,
      "Ġnou": 1009,
      "mo": 1010,
      "ourn": 1011,
      "Ġfait": 1012,
      "ittee": 1013,
      "abil": 1014,
      "ĠLe": 1015,
      "use": 1016,
      "Ġdisp": 1017,
      "arg": 1018,
      "agraph": 1019,
      "Ġcontin": 1020,
      "overnment": 1021,
      "if": 1022,
      "ound": 1023,
      "19": 1024,
      "Ġcas": 1025,
      "ual": 1026,
      "Ġvis": 1027,
      "Ġsoci": 1028,
      "ĠdÃ©veloppement": 1029,
      "ense": 1030,
      "ulation": 1031,
      "Ġplan": 1032,
      "sible": 1033,
      "Ġ$": 1034,
      "ater": 1035,
      "Ġyear": 1036,
      "Ġpoliti": 1037,
      "ĠUnited": 1038,
      "ight": 1039,
      "Ġspec": 1040,
      "ood": 1041,
      "stem": 1042,
      "osition": 1043,
      "her": 1044,
      "Ġver": 1045,
      "ms": 1046,
      "Ġmore": 1047,
      "ĠStat": 1048,
      "voir": 1049,
      "ances": 1050,
      "ante": 1051,
      "Ġwould": 1052,
      "Ġ10": 1053,
      "atives": 1054,
      "ost": 1055,
      "cy": 1056,
      "Ġprojet": 1057,
      "rib": 1058,
      "Ġmain": 1059,
      "ene": 1060,
      "pend": 1061,
      "embl": 1062,
      "Ġout": 1063,
      "rie": 1064,
      "acc": 1065,
      "ussi": 1066,
      "tis": 1067,
      "ights": 1068,
      "Ġdur": 1069,
      "etw": 1070,
      "Ġpres": 1071,
      "Ġinv": 1072,
      "ax": 1073,
      "ĠInter": 1074,
      "ory": 1075,
      "ating": 1076,
      "cher": 1077,
      "TI": 1078,
      "onseil": 1079,
      "ĠCoun": 1080,
      "Ġk": 1081,
      "ĠâĢĵ": 1082,
      "cil": 1083,
      "ouvernement": 1084,
      "insi": 1085,
      "ade": 1086,
      "Ġsign": 1087,
      "ĠEn": 1088,
      "AN": 1089,
      "ĠCommittee": 1090,
      "entr": 1091,
      "ru": 1092,
      "Ġcontrib": 1093,
      "Ġprop": 1094,
      "Ġpropos": 1095,
      "antÃ©": 1096,
      "This": 1097,
      "ake": 1098,
      "Ġinclud": 1099,
      "ks": 1100,
      "Ã¨g": 1101,
      "Ġdroits": 1102,
      "Ãł": 1103,
      "Ġcertain": 1104,
      "Ġsuch": 1105,
      "agement": 1106,
      "Ġdeux": 1107,
      "Ġnew": 1108,
      "Ã©ration": 1109,
      "und": 1110,
      "Ġrespec": 1111,
      "vis": 1112,
      "Ġthere": 1113,
      "ĠConseil": 1114,
      "tari": 1115,
      "viron": 1116,
      "Ġprincip": 1117,
      "lle": 1118,
      "ren": 1119,
      "ĠMin": 1120,
      "Ġparagraph": 1121,
      "ind": 1122,
      "Ġprogramme": 1123,
      "10": 1124,
      "ates": 1125,
      "Ġhad": 1126,
      "Ġorganis": 1127,
      "Ġyou": 1128,
      "Ġcor": 1129,
      "ages": 1130,
      "Ġrecomm": 1131,
      "Ġaff": 1132,
      "Ġmet": 1133,
      "anc": 1134,
      "mer": 1135,
      "Ġbas": 1136,
      "Ġph": 1137,
      "Ġemploy": 1138,
      "Ġindi": 1139,
      "ĠAr": 1140,
      "Ġbo": 1141,
      "Ġainsi": 1142,
      "oute": 1143,
      "Ġpeut": 1144,
      "Ġany": 1145,
      "ets": 1146,
      "Ġpra": 1147,
      "tries": 1148,
      "Ġneed": 1149,
      "ĠStates": 1150,
      "Ġmay": 1151,
      "uis": 1152,
      "Ġiss": 1153,
      "Ãªme": 1154,
      "Ġprovid": 1155,
      "Ġapplic": 1156,
      "lev": 1157,
      "Ġloc": 1158,
      "rough": 1159,
      "Ġadop": 1160,
      "Ġgroup": 1161,
      "Ġoffic": 1162,
      "ĠÃītats": 1163,
      "Ġbut": 1164,
      "oration": 1165,
      "Ġsupport": 1166,
      "ils": 1167,
      "aient": 1168,
      "Ġdevelopment": 1169,
      "Ġnombre": 1170,
      "Ġnum": 1171,
      "ally": 1172,
      "ww": 1173,
      "ange": 1174,
      "part": 1175,
      "ĠCouncil": 1176,
      "Ġro": 1177,
      "Ġdom": 1178,
      "Ġeuro": 1179,
      "ĠNo": 1180,
      "Ġ.": 1181,
      "ific": 1182,
      "Ġ2005": 1183,
      "oy": 1184,
      "lab": 1185,
      "Ġprof": 1186,
      "Ġleurs": 1187,
      "try": 1188,
      "amp": 1189,
      "vid": 1190,
      "Ġqual": 1191,
      "ĠAss": 1192,
      "Ġsystem": 1193,
      "tique": 1194,
      "vre": 1195,
      "Ġtous": 1196,
      "endre": 1197,
      "It": 1198,
      "ris": 1199,
      "ĠÃ©ta": 1200,
      "EN": 1201,
      "ature": 1202,
      "sibil": 1203,
      "ĠdÃ©p": 1204,
      "ĠÃ©gal": 1205,
      "Ġsuiv": 1206,
      "Ġfon": 1207,
      "ĠcrÃ©": 1208,
      "Ġvous": 1209,
      "ree": 1210,
      "Ġone": 1211,
      "ely": 1212,
      "Ġup": 1213,
      "teurs": 1214,
      "Ġrequire": 1215,
      "ente": 1216,
      "ĠSt": 1217,
      "led": 1218,
      "Ã©cur": 1219,
      "000": 1220,
      "ural": 1221,
      "ĠLa": 1222,
      "ister": 1223,
      "cid": 1224,
      "udg": 1225,
      "Ġpop": 1226,
      "Ġ2006": 1227,
      "hip": 1228,
      "ties": 1229,
      "ĠQ": 1230,
      "reat": 1231,
      "ER": 1232,
      "Ġ20": 1233,
      "aly": 1234,
      "ĠsantÃ©": 1235,
      "ĠspÃ©": 1236,
      "ĠintÃ©": 1237,
      "Ġren": 1238,
      "ollow": 1239,
      "Ġinf": 1240,
      "Ġwho": 1241,
      "Ġinstitu": 1242,
      "Ġthese": 1243,
      "Ġthey": 1244,
      "Ġthan": 1245,
      "ĠÃ©galement": 1246,
      "Ġobjec": 1247,
      "Ġquestion": 1248,
      "Ġdirec": 1249,
      "Ġiniti": 1250,
      "Ġprotection": 1251,
      "ied": 1252,
      "Ġstat": 1253,
      "ĠConvention": 1254,
      "Ġmen": 1255,
      "Ã©curitÃ©": 1256,
      "ĠAn": 1257,
      "Ġcanad": 1258,
      "Ġfaire": 1259,
      "aut": 1260,
      "Ġmais": 1261,
      "Ġcoop": 1262,
      "Ġhuman": 1263,
      "Ġenc": 1264,
      "ards": 1265,
      "enne": 1266,
      "Ã®": 1267,
      "adre": 1268,
      "Ġsocial": 1269,
      "Ġsession": 1270,
      "ables": 1271,
      "Ġsyst": 1272,
      "Ġrepr": 1273,
      "Ã»": 1274,
      "aine": 1275,
      "eng": 1276,
      "autres": 1277,
      "nes": 1278,
      "rait": 1279,
      "termin": 1280,
      "ĠeuropÃ©": 1281,
      "tifs": 1282,
      "Ġens": 1283,
      "een": 1284,
      "ner": 1285,
      "Ġjus": 1286,
      "tim": 1287,
      "Ġrem": 1288,
      "Ãĥ": 1289,
      "Ġpo": 1290,
      "irst": 1291,
      "Ġaccord": 1292,
      "aj": 1293,
      "Ġfond": 1294,
      "sider": 1295,
      "Ġ15": 1296,
      "Ġdec": 1297,
      "uer": 1298,
      "earch": 1299,
      "CE": 1300,
      "ĠÂ»": 1301,
      "ĠCanadian": 1302,
      "ject": 1303,
      "Ġpolic": 1304,
      "Ġcountries": 1305,
      "tiques": 1306,
      "ep": 1307,
      "Ġover": 1308,
      "ode": 1309,
      "ĠsÃ©curitÃ©": 1310,
      "act": 1311,
      "ats": 1312,
      "20": 1313,
      "Ġmembres": 1314,
      "etween": 1315,
      "Ġuse": 1316,
      "Ġ2004": 1317,
      "Ġvi": 1318,
      "atÃ©g": 1319,
      "tical": 1320,
      "Ġris": 1321,
      "vironment": 1322,
      "On": 1323,
      "ov": 1324,
      "Ġutil": 1325,
      "ĠProgram": 1326,
      "Ġfollow": 1327,
      "roupe": 1328,
      "ines": 1329,
      "Ġthrough": 1330,
      "ulture": 1331,
      "onnement": 1332,
      "Ã¢": 1333,
      "Ġrev": 1334,
      "Ġimportant": 1335,
      "isions": 1336,
      "Ġsous": 1337,
      "iter": 1338,
      "ĠEuropean": 1339,
      "Ġbetween": 1340,
      "arm": 1341,
      "ament": 1342,
      "Ġje": 1343,
      "Ġbien": 1344,
      "ĠComitÃ©": 1345,
      "tives": 1346,
      "Ġservice": 1347,
      "Ġcontre": 1348,
      "imp": 1349,
      "Ġfourn": 1350,
      "iser": 1351,
      "Ġfem": 1352,
      "Ġmilli": 1353,
      "Ġpeu": 1354,
      "ateurs": 1355,
      "Ġgestion": 1356,
      "lan": 1357,
      "estions": 1358,
      "ducation": 1359,
      "Ã©li": 1360,
      "Ġrecher": 1361,
      "als": 1362,
      "Ġcommer": 1363,
      "pri": 1364,
      "ĠÃ©conom": 1365,
      "Ġpoint": 1366,
      "ffic": 1367,
      "Ġlong": 1368,
      "ditions": 1369,
      "Ġprogrammes": 1370,
      "valuation": 1371,
      "orts": 1372,
      "ember": 1373,
      "Ġmati": 1374,
      "Ġ12": 1375,
      "ew": 1376,
      "Â©": 1377,
      "Ġ[": 1378,
      "Ġinto": 1379,
      "ateg": 1380,
      "Ġplace": 1381,
      "Ã©qu": 1382,
      "Ġgouvernement": 1383,
      "ub": 1384,
      "Ġautres": 1385,
      "ug": 1386,
      "Ġdocument": 1387,
      "mment": 1388,
      "urity": 1389,
      "Ġaussi": 1390,
      "Ġconsider": 1391,
      "Ġent": 1392,
      "Ġten": 1393,
      "Ġid": 1394,
      "Ġtemp": 1395,
      "ast": 1396,
      "nex": 1397,
      "ĠmÃ©": 1398,
      "prÃ¨s": 1399,
      "Ġ2007": 1400,
      "omen": 1401,
      "clu": 1402,
      "Ġinform": 1403,
      "rent": 1404,
      "tice": 1405,
      "ĠgÃ©nÃ©ral": 1406,
      "Ġdroit": 1407,
      "ization": 1408,
      "Ġmade": 1409,
      "Ġincre": 1410,
      "Ġ%": 1411,
      "Ġhealth": 1412,
      "ars": 1413,
      "ĠmÃªme": 1414,
      "ublic": 1415,
      "Ġcadre": 1416,
      "Ġ2003": 1417,
      "Ġprem": 1418,
      "Ġprior": 1419,
      "tant": 1420,
      "Ġdisc": 1421,
      "ĠServic": 1422,
      "omme": 1423,
      "tablish": 1424,
      "Ġsp": 1425,
      "Ġpermet": 1426,
      "mm": 1427,
      "Ġsituation": 1428,
      "ĠY": 1429,
      "Ġour": 1430,
      "article": 1431,
      "Ġcours": 1432,
      "mis": 1433,
      "Ġdont": 1434,
      "tud": 1435,
      "Ġbi": 1436,
      "Ġnive": 1437,
      "Ġquestions": 1438,
      "istance": 1439,
      "Ġdoit": 1440,
      "IN": 1441,
      "Ġmust": 1442,
      "Ġress": 1443,
      "thor": 1444,
      "iste": 1445,
      "ton": 1446,
      "Ã´le": 1447,
      "ency": 1448,
      "....": 1449,
      "Ġtime": 1450,
      "omp": 1451,
      "Ġmarch": 1452,
      "iÃ¨me": 1453,
      "ministr": 1454,
      "tention": 1455,
      "ix": 1456,
      "ĠactivitÃ©s": 1457,
      "ft": 1458,
      "tend": 1459,
      "Ġlim": 1460,
      "ince": 1461,
      "Ġ2002": 1462,
      "ĠFor": 1463,
      "ĠReg": 1464,
      "action": 1465,
      "ran": 1466,
      "tern": 1467,
      "ĠreprÃ©sent": 1468,
      "Ġcontr": 1469,
      "ĠRes": 1470,
      "Ġconc": 1471,
      "Ġtw": 1472,
      "taire": 1473,
      "Ġrights": 1474,
      "13": 1475,
      "eld": 1476,
      "Ġmesures": 1477,
      "eting": 1478,
      "Ġhigh": 1479,
      "land": 1480,
      "tal": 1481,
      "utions": 1482,
      "Ġfra": 1483,
      "Ġconstitu": 1484,
      "Ġlevel": 1485,
      "ĠrÃ©gion": 1486,
      "Ã©cess": 1487,
      "Ġsol": 1488,
      "Ġcour": 1489,
      "Ġdemand": 1490,
      "conomic": 1491,
      "Ġfam": 1492,
      "Ġrece": 1493,
      "ved": 1494,
      "________": 1495,
      "Ġincluding": 1496,
      "Ġcanadien": 1497,
      "clar": 1498,
      "ĠnÃ©cess": 1499,
      "Ġ18": 1500,
      "Ã©tÃ©": 1501,
      "king": 1502,
      "ĠEx": 1503,
      "truc": 1504,
      "sie": 1505,
      "Ġpersonnes": 1506,
      "Ġcri": 1507,
      "tent": 1508,
      "Ã©rence": 1509,
      "now": 1510,
      "Ġtechnolog": 1511,
      "isl": 1512,
      "ĠAl": 1513,
      "Ġfonction": 1514,
      "Ġthose": 1515,
      "ning": 1516,
      "Ġexam": 1517,
      "ĠAg": 1518,
      "atif": 1519,
      "ĠrÃ¨g": 1520,
      "12": 1521,
      "ĠrÃ©p": 1522,
      "Ġchild": 1523,
      "Ġlors": 1524,
      "ause": 1525,
      "man": 1526,
      "enseign": 1527,
      "fore": 1528,
      "Ġsc": 1529,
      "lect": 1530,
      "Ġestablish": 1531,
      "Ġimplement": 1532,
      "Ġafin": 1533,
      "Ġwell": 1534,
      "duction": 1535,
      "red": 1536,
      "Ġref": 1537,
      "vironnement": 1538,
      "anti": 1539,
      "ib": 1540,
      "rgan": 1541,
      "Ġcli": 1542,
      "Ġgu": 1543,
      "Ġpartie": 1544,
      "ination": 1545,
      "ret": 1546,
      "ositions": 1547,
      "Ġcent": 1548,
      "Ġmise": 1549,
      "ession": 1550,
      "Â»": 1551,
      "Ġmoy": 1552,
      "Ġval": 1553,
      "Ġconn": 1554,
      "entif": 1555,
      "Ġconditions": 1556,
      "Ġviol": 1557,
      "ĠMar": 1558,
      "Ġpriv": 1559,
      "Ġ2000": 1560,
      "Ġchang": 1561,
      "Ġproduc": 1562,
      "onc": 1563,
      "Ġobs": 1564,
      "Ġpou": 1565,
      "ety": 1566,
      "AR": 1567,
      "tement": 1568,
      "Ġonly": 1569,
      "Ã¨mes": 1570,
      "Ġdemande": 1571,
      "Ġ13": 1572,
      "ĠUnies": 1573,
      "ĠAd": 1574,
      "arge": 1575,
      "Ġoper": 1576,
      "ĠsÃ©": 1577,
      "Ġadd": 1578,
      "ĠmatiÃ¨re": 1579,
      "uvre": 1580,
      "Ġshall": 1581,
      "Ġmeas": 1582,
      "Ġpeop": 1583,
      "oire": 1584,
      "eration": 1585,
      "Ġpromo": 1586,
      "Ġsome": 1587,
      "Ġtro": 1588,
      "Ġsoit": 1589,
      "Ġsus": 1590,
      "Ġabout": 1591,
      "oll": 1592,
      "blig": 1593,
      "antes": 1594,
      "Ġexper": 1595,
      "erc": 1596,
      "ĠÃ©tabl": 1597,
      "Ġnor": 1598,
      "mination": 1599,
      "IS": 1600,
      "ĠâĢĶ": 1601,
      "Ġparticular": 1602,
      "ĠdonnÃ©es": 1603,
      "Ġpossible": 1604,
      "OR": 1605,
      "ĠHe": 1606,
      "Ġ11": 1607,
      "ivent": 1608,
      "Ġnouvel": 1609,
      "resent": 1610,
      "ieu": 1611,
      "sive": 1612,
      "ference": 1613,
      "Ġoff": 1614,
      "Ġmod": 1615,
      "Ġcompte": 1616,
      "Ġcro": 1617,
      "Ġparties": 1618,
      "ĠprÃ©c": 1619,
      "ased": 1620,
      "Ġcapac": 1621,
      "Ġcomple": 1622,
      "Ġrespons": 1623,
      "Ġnumber": 1624,
      "uses": 1625,
      "tamment": 1626,
      "ata": 1627,
      "Ġty": 1628,
      "ings": 1629,
      "ĠMr": 1630,
      "AC": 1631,
      "Ġmat": 1632,
      "Ġif": 1633,
      "information": 1634,
      "elon": 1635,
      "ustri": 1636,
      "ever": 1637,
      "Ã©ra": 1638,
      "Ġbudg": 1639,
      "ital": 1640,
      "ack": 1641,
      "ann": 1642,
      "oura": 1643,
      "Ġfemmes": 1644,
      "Ġvari": 1645,
      "Ġrecherche": 1646,
      "Ġ2001": 1647,
      "aines": 1648,
      "Ġcontra": 1649,
      "Ġ14": 1650,
      "Ġtwo": 1651,
      "Ġ>": 1652,
      "orld": 1653,
      "Ġlaw": 1654,
      "Ġrais": 1655,
      "EC": 1656,
      "Ġcommunic": 1657,
      "Ã¹": 1658,
      "Ġconsid": 1659,
      "Ġentrepr": 1660,
      "Ġequ": 1661,
      "Ġefforts": 1662,
      "Ġauthor": 1663,
      "Ġwhere": 1664,
      "ĠDire": 1665,
      ".,": 1666,
      "crip": 1667,
      "Ġeng": 1668,
      "Ġvol": 1669,
      "11": 1670,
      "Ġfacil": 1671,
      "Ġder": 1672,
      "Ġ2008": 1673,
      "Ġindic": 1674,
      "Ġciv": 1675,
      "ĠLes": 1676,
      "Ġbec": 1677,
      "urer": 1678,
      "An": 1679,
      "IC": 1680,
      "Ġwithin": 1681,
      "TION": 1682,
      "ĠsystÃ¨me": 1683,
      "Ã©p": 1684,
      "ĠInternational": 1685,
      "tien": 1686,
      "lu": 1687,
      "Ġactivities": 1688,
      "ule": 1689,
      "Ġpay": 1690,
      "ici": 1691,
      "Ġpopulation": 1692,
      "Ġconcernant": 1693,
      "âĢĿ": 1694,
      "ition": 1695,
      "istre": 1696,
      "ized": 1697,
      "Ġressources": 1698,
      "Ġagain": 1699,
      "Ġnouve": 1700,
      "Dans": 1701,
      "ving": 1702,
      "Ġenf": 1703,
      "old": 1704,
      "Ġ30": 1705,
      "Par": 1706,
      "Ġhis": 1707,
      "ĠMan": 1708,
      "Ġmeeting": 1709,
      "Ġsans": 1710,
      "Al": 1711,
      "Ġproduits": 1712,
      "Ġrespect": 1713,
      "Ġ198": 1714,
      "Ġfund": 1715,
      "Ġess": 1716,
      "Ġyears": 1717,
      "Ã©l": 1718,
      "Ġprovide": 1719,
      "ole": 1720,
      "AL": 1721,
      "ĠprÃ©v": 1722,
      "Åĵ": 1723,
      "iers": 1724,
      "uÃ©": 1725,
      "Ġpolitique": 1726,
      "wn": 1727,
      "isme": 1728,
      "lob": 1729,
      "ful": 1730,
      "iod": 1731,
      "Ġactu": 1732,
      "ĠlÃ©g": 1733,
      "Ass": 1734,
      "ĠAct": 1735,
      "ĠrÃ©sul": 1736,
      "ount": 1737,
      "Ġmark": 1738,
      "tric": 1739,
      "OM": 1740,
      "Ġyour": 1741,
      "ĠoÃ¹": 1742,
      "Ã©ment": 1743,
      "Ġmaj": 1744,
      "Ġfinanci": 1745,
      "UR": 1746,
      "ureau": 1747,
      "ulations": 1748,
      "Ġpolitiques": 1749,
      "Ġdra": 1750,
      "Ġocc": 1751,
      "aiss": 1752,
      "mbre": 1753,
      "cle": 1754,
      "tÃ©s": 1755,
      "fe": 1756,
      "lection": 1757,
      "199": 1758,
      "Ġniveau": 1759,
      "Ġset": 1760,
      "Ġtoute": 1761,
      "Ġagre": 1762,
      "Ġ16": 1763,
      "Ġtransport": 1764,
      "Ġpeuvent": 1765,
      "Ġpeople": 1766,
      "ffice": 1767,
      "Ġwomen": 1768,
      "ules": 1769,
      "Ġeffic": 1770,
      "rÃª": 1771,
      "eb": 1772,
      "ĠpÃ©ri": 1773,
      "igr": 1774,
      "Ġconform": 1775,
      "pl": 1776,
      "ining": 1777,
      "sident": 1778,
      "ca": 1779,
      "Ġlang": 1780,
      "ether": 1781,
      "ĠAf": 1782,
      "ĠGovernment": 1783,
      "Ġnotamment": 1784,
      "Ġcoord": 1785,
      "orer": 1786,
      "itation": 1787,
      "Ġorder": 1788,
      "ĠCommun": 1789,
      "orte": 1790,
      "very": 1791,
      "ĠstratÃ©g": 1792,
      "ellement": 1793,
      "Ġavant": 1794,
      "ĠdÃ©l": 1795,
      "Ġpass": 1796,
      "Ġutilis": 1797,
      "ĠgÃ©nÃ©rale": 1798,
      "Ġbes": 1799,
      "Ġappropri": 1800,
      "io": 1801,
      "iness": 1802,
      "erg": 1803,
      "Ġdoivent": 1804,
      "ribun": 1805,
      "entes": 1806,
      "Ġmodi": 1807,
      "Ġtoutes": 1808,
      "ious": 1809,
      "Ġjur": 1810,
      "Ġexemp": 1811,
      "Ġenti": 1812,
      "De": 1813,
      "Ġmis": 1814,
      "ĠDec": 1815,
      "Ġoblig": 1816,
      "ĠGeneral": 1817,
      "mit": 1818,
      "Ġaddition": 1819,
      "ok": 1820,
      "Ġsci": 1821,
      "Ġtotal": 1822,
      "quer": 1823,
      "Ġmanagement": 1824,
      "Ġbesoin": 1825,
      "Ġtak": 1826,
      "ches": 1827,
      "ters": 1828,
      "ĠUN": 1829,
      "Ġprocessus": 1830,
      "az": 1831,
      "ĠâĢľ": 1832,
      "Ġconsult": 1833,
      "Ġfe": 1834,
      "ĠrÃ©al": 1835,
      "ĠCour": 1836,
      "Ġperiod": 1837,
      "Ġregion": 1838,
      "ible": 1839,
      "urther": 1840,
      "Ġju": 1841,
      "Ġpolicy": 1842,
      "Ġinstitutions": 1843,
      "eau": 1844,
      "Ġans": 1845,
      "vesti": 1846,
      "Ġcur": 1847,
      "Ġgra": 1848,
      "Ã´t": 1849,
      "Ġjour": 1850,
      "ĠdiffÃ©r": 1851,
      "Ġfirst": 1852,
      "irc": 1853,
      "Ġaf": 1854,
      "graph": 1855,
      "tariat": 1856,
      "ires": 1857,
      "IT": 1858,
      "Ġve": 1859,
      "Ġassoci": 1860,
      "Ġenvironment": 1861,
      "lication": 1862,
      "Ġend": 1863,
      "ĠOn": 1864,
      "partment": 1865,
      "Ġhow": 1866,
      "Ġmul": 1867,
      "issement": 1868,
      "Ġdate": 1869,
      "Ġused": 1870,
      "Ġplu": 1871,
      "lles": 1872,
      "15": 1873,
      "ĠBo": 1874,
      "Ġthem": 1875,
      "Ġcomb": 1876,
      "Ġcollec": 1877,
      "Ġknow": 1878,
      "Ġanaly": 1879,
      "Ġwhen": 1880,
      "Ġpai": 1881,
      "Ġsite": 1882,
      "ateur": 1883,
      "Ġregard": 1884,
      "ry": 1885,
      "Ġproduction": 1886,
      "Ġavail": 1887,
      "We": 1888,
      "Ġnature": 1889,
      "Ġparagraphe": 1890,
      "Ġpersonnel": 1891,
      "usiness": 1892,
      "Ġindivid": 1893,
      "tionn": 1894,
      "intÃ©": 1895,
      "pport": 1896,
      "Ġfollowing": 1897,
      "tructure": 1898,
      "emble": 1899,
      "Ġful": 1900,
      "Ġcre": 1901,
      "Ġrenseign": 1902,
      "Ġenfants": 1903,
      "inter": 1904,
      "Ġdiscus": 1905,
      "Ġprobl": 1906,
      "Ġvue": 1907,
      "Ġcal": 1908,
      "Ġpresent": 1909,
      "ĠÃ©tait": 1910,
      "he": 1911,
      "ĠCo": 1912,
      "Ġterrit": 1913,
      "Ġagainst": 1914,
      "Ġresearch": 1915,
      "Ġcou": 1916,
      "tario": 1917,
      "Ġrecommend": 1918,
      "ĠdÃ©b": 1919,
      "Ġimpro": 1920,
      "ident": 1921,
      "stitu": 1922,
      "ĠspÃ©cial": 1923,
      "ĠTra": 1924,
      "igin": 1925,
      "com": 1926,
      "ministration": 1927,
      "Ġbase": 1928,
      "ource": 1929,
      "Ġport": 1930,
      "truction": 1931,
      "Ġprofession": 1932,
      "Ġinclu": 1933,
      "ger": 1934,
      "Ġche": 1935,
      "Ġprovided": 1936,
      "ĠState": 1937,
      "Ġinternationale": 1938,
      "Ġmoins": 1939,
      "Ġprogr": 1940,
      "ĠdÃ©clar": 1941,
      "ĠRep": 1942,
      "ites": 1943,
      "ains": 1944,
      "laboration": 1945,
      "AD": 1946,
      "Ġmost": 1947,
      "aff": 1948,
      "Ġtax": 1949,
      "Ġcountry": 1950,
      "Nous": 1951,
      "Ġ17": 1952,
      "Ġtrou": 1953,
      "ership": 1954,
      "Ġformation": 1955,
      "dic": 1956,
      "Ġensure": 1957,
      "50": 1958,
      "ĠDevelop": 1959,
      "Ġdern": 1960,
      "Ġdoll": 1961,
      "Ġautor": 1962,
      "Ġdep": 1963,
      "ism": 1964,
      "Ġdivers": 1965,
      "ĠTr": 1966,
      "Ġdocuments": 1967,
      "Pour": 1968,
      "bility": 1969,
      "aque": 1970,
      "Ġelle": 1971,
      "ĠdÃ©m": 1972,
      "Ġmondi": 1973,
      "ĠAssembl": 1974,
      "fÃ©rence": 1975,
      "Ġgar": 1976,
      "Ġreview": 1977,
      "atis": 1978,
      "irm": 1979,
      "ĠProgramme": 1980,
      "fi": 1981,
      "ily": 1982,
      "iÃ¨res": 1983,
      "ĠeuropÃ©enne": 1984,
      "Ġz": 1985,
      "Ġrespon": 1986,
      "ests": 1987,
      "Ġissues": 1988,
      "Pro": 1989,
      "Ġprac": 1990,
      "Ġtrois": 1991,
      "Ġgood": 1992,
      "II": 1993,
      "tenir": 1994,
      "Ġcould": 1995,
      "Ġduring": 1996,
      "Ġculture": 1997,
      "Ġaddress": 1998,
      "vement": 1999,
      "Ġimm": 2000,
      "Ġrepresent": 2001,
      "Ġach": 2002,
      "Ġfu": 2003,
      "gl": 2004,
      "14": 2005,
      "Ã©m": 2006,
      "Ġeconomic": 2007,
      "occ": 2008,
      "AT": 2009,
      "homme": 2010,
      "leg": 2011,
      "lÃ©ment": 2012,
      "ĠMon": 2013,
      "Ġorganiz": 2014,
      "ĠHealth": 2015,
      "Ġparticipation": 2016,
      "Ġrenseignements": 2017,
      "ath": 2018,
      "Ġdata": 2019,
      "iens": 2020,
      "30": 2021,
      "Ġmajor": 2022,
      "reg": 2023,
      "Ce": 2024,
      "istÃ¨re": 2025,
      "Ġperson": 2026,
      "Ġsal": 2027,
      "tex": 2028,
      "row": 2029,
      "Ġbeing": 2030,
      "Ġdiffer": 2031,
      "Ġbudget": 2032,
      "ĠÃ©c": 2033,
      "pro": 2034,
      "For": 2035,
      "ium": 2036,
      "Ġeach": 2037,
      "Ġstand": 2038,
      "Ġgrand": 2039,
      "Ġimplementation": 2040,
      "Wh": 2041,
      "gment": 2042,
      "organ": 2043,
      "ĠrÃ©un": 2044,
      "ame": 2045,
      "rim": 2046,
      "ough": 2047,
      ");": 2048,
      "ĠrÃ©sultats": 2049,
      "Ġmake": 2050,
      "ancement": 2051,
      "Ġte": 2052,
      "Ġboth": 2053,
      "ĠÃ©conomique": 2054,
      "Ġrend": 2055,
      "Ġrecommand": 2056,
      "ribunal": 2057,
      "Ġtrait": 2058,
      "ĠMinister": 2059,
      "Ġapplication": 2060,
      "Ġmeasures": 2061,
      "ĠNew": 2062,
      "su": 2063,
      "exam": 2064,
      "Åĵuvre": 2065,
      "Ġpur": 2066,
      "Ġresolution": 2067,
      "ĠAssembly": 2068,
      "ĠPol": 2069,
      "Ġchildren": 2070,
      "Ġvers": 2071,
      "Ġvie": 2072,
      "Au": 2073,
      "ĠSecrÃ©": 2074,
      "ror": 2075,
      "Ã©v": 2076,
      "Ġsubst": 2077,
      "Ġavailable": 2078,
      "Ġaccess": 2079,
      "ck": 2080,
      "Ġprovin": 2081,
      "alitÃ©": 2082,
      "exp": 2083,
      "aci": 2084,
      "Ġrenfor": 2085,
      "tudi": 2086,
      "Ġsection": 2087,
      "Ġsera": 2088,
      "ĠTh": 2089,
      "raient": 2090,
      "mb": 2091,
      "Ġcel": 2092,
      "Ġadv": 2093,
      "Ġdist": 2094,
      "ÃĢ": 2095,
      "enses": 2096,
      "own": 2097,
      "As": 2098,
      "Ġbu": 2099,
      "emblÃ©e": 2100,
      "Ġgovernment": 2101,
      "Ġbel": 2102,
      "ĠCol": 2103,
      "Ġstrateg": 2104,
      "Ġdollars": 2105,
      "ĠDE": 2106,
      "Re": 2107,
      "loi": 2108,
      "ĠDevelopment": 2109,
      "bec": 2110,
      "Ġrelev": 2111,
      "istra": 2112,
      "abilitÃ©": 2113,
      "ĠtrÃ¨s": 2114,
      "ĠdÃ©fin": 2115,
      "ĠdÃ©termin": 2116,
      "Ġidentif": 2117,
      "Ġfinancial": 2118,
      "Ġassess": 2119,
      "Ġessenti": 2120,
      "UN": 2121,
      "Ġdirect": 2122,
      "ĠfaÃ§": 2123,
      "Ġcet": 2124,
      "ĠCons": 2125,
      "Ġ1999": 2126,
      "por": 2127,
      "Ġlead": 2128,
      "Ġselon": 2129,
      "enn": 2130,
      "ĠrÃ©solution": 2131,
      "Ġmand": 2132,
      "ĠMember": 2133,
      "ultural": 2134,
      "Ġconse": 2135,
      "ministra": 2136,
      "ĠPrÃ©": 2137,
      "abit": 2138,
      "Ġmed": 2139,
      "ĠcompÃ©": 2140,
      "Ġtake": 2141,
      "Ġmembers": 2142,
      "Ġmesure": 2143,
      "Ġcommunau": 2144,
      "elp": 2145,
      "Ġvale": 2146,
      "Ġtemps": 2147,
      "agn": 2148,
      "AS": 2149,
      "ili": 2150,
      "ced": 2151,
      "Ãªtre": 2152,
      "Ġdiffic": 2153,
      "ĠCentre": 2154,
      "Ġresources": 2155,
      "ocra": 2156,
      "Ġresul": 2157,
      "Ġareas": 2158,
      "Ġautre": 2159,
      "aÃ®": 2160,
      "pecial": 2161,
      "ĠdÃ©cision": 2162,
      "Ġsex": 2163,
      "Ġlieu": 2164,
      "art": 2165,
      "Ġbene": 2166,
      "Ġglob": 2167,
      "Ġnu": 2168,
      "ĠArticle": 2169,
      "Ġtex": 2170,
      "ect": 2171,
      "Ġview": 2172,
      "ool": 2173,
      "Ġvotre": 2174,
      "Ġloi": 2175,
      "Ġappli": 2176,
      "16": 2177,
      "Ġsecteur": 2178,
      "Ġmal": 2179,
      "Ġcase": 2180,
      "Ġamend": 2181,
      "Ġke": 2182,
      "Ġ24": 2183,
      "ieux": 2184,
      "Ġinstru": 2185,
      "bor": 2186,
      "Ġgeneral": 2187,
      "Ġdecision": 2188,
      "la": 2189,
      "Ġâ": 2190,
      "AssemblÃ©e": 2191,
      "Ġlui": 2192,
      "ĠGu": 2193,
      "Ġcontinu": 2194,
      "itor": 2195,
      "Ġ25": 2196,
      "ys": 2197,
      "quent": 2198,
      "ederal": 2199,
      "cent": 2200,
      "Ġrelations": 2201,
      "Ġmany": 2202,
      "Ġtou": 2203,
      "sig": 2204,
      "Ġaction": 2205,
      "uman": 2206,
      "urn": 2207,
      "ron": 2208,
      "ĠaprÃ¨s": 2209,
      "ĠLoi": 2210,
      "Ġsurve": 2211,
      "ĠIs": 2212,
      "ĠNational": 2213,
      "01": 2214,
      "hic": 2215,
      "Ġright": 2216,
      "Ġinvol": 2217,
      "Ġavait": 2218,
      "work": 2219,
      "islation": 2220,
      "ras": 2221,
      "Ġsecurity": 2222,
      "ID": 2223,
      "era": 2224,
      "Ġcirc": 2225,
      "uring": 2226,
      "esse": 2227,
      "go": 2228,
      "Ġconta": 2229,
      "Ġconclu": 2230,
      "emb": 2231,
      "tt": 2232,
      "ĠfÃ©d": 2233,
      "table": 2234,
      "sieurs": 2235,
      "Ġcontro": 2236,
      "Ġlocal": 2237,
      "Ġfurther": 2238,
      "Ġnotre": 2239,
      "Ġsecond": 2240,
      "Ġobserv": 2241,
      "Ġcurrent": 2242,
      "endant": 2243,
      "Ġarea": 2244,
      "ability": 2245,
      "Ġencoura": 2246,
      "Ġavoir": 2247,
      "ĠProt": 2248,
      "ared": 2249,
      "Ġcontinue": 2250,
      "Ar": 2251,
      "ĠÅĵuvre": 2252,
      "Ġcondu": 2253,
      "rieur": 2254,
      "resident": 2255,
      "venir": 2256,
      "ĠpÃ©riode": 2257,
      "Ã©ta": 2258,
      "Des": 2259,
      "ower": 2260,
      "atory": 2261,
      "Ad": 2262,
      "ĠdÃ©f": 2263,
      "cto": 2264,
      "Ġple": 2265,
      "ĠÃ©qu": 2266,
      "tron": 2267,
      "Ġcompris": 2268,
      "ĠspÃ©ci": 2269,
      "ĠfaÃ§on": 2270,
      "Ġcommunity": 2271,
      "Ġpoin": 2272,
      "Ġret": 2273,
      "Ġspecific": 2274,
      "Ġsch": 2275,
      "elf": 2276,
      "Ġleg": 2277,
      "Ġspecial": 2278,
      "cription": 2279,
      "Ġgroupe": 2280,
      "atisf": 2281,
      "tegr": 2282,
      "Ġafter": 2283,
      "omb": 2284,
      "Ã©ro": 2285,
      "Ġcle": 2286,
      "quÃ©": 2287,
      "Ġmu": 2288,
      "18": 2289,
      "Ã©lÃ©": 2290,
      "oles": 2291,
      "Ġprojets": 2292,
      "ĠPre": 2293,
      "General": 2294,
      "Ġinst": 2295,
      "Ġtitre": 2296,
      "Ġmilit": 2297,
      "vely": 2298,
      "Ġeffective": 2299,
      "ested": 2300,
      "Ãītat": 2301,
      "Ġhelp": 2302,
      "ĠcoopÃ©ration": 2303,
      "ograph": 2304,
      "ĠSu": 2305,
      "Ġgo": 2306,
      "Ġfav": 2307,
      "ationaux": 2308,
      "application": 2309,
      "25": 2310,
      "Ġsucc": 2311,
      "retary": 2312,
      "hn": 2313,
      "igne": 2314,
      "Ġ|": 2315,
      "ST": 2316,
      "itical": 2317,
      "Ã©valuation": 2318,
      "Ġchaque": 2319,
      "Ġgiv": 2320,
      "ize": 2321,
      "ength": 2322,
      "Ġbusiness": 2323,
      "Ġparten": 2324,
      "Ġvery": 2325,
      "ctions": 2326,
      "Ġrequired": 2327,
      "pportun": 2328,
      "Ġcontex": 2329,
      "Ġtraining": 2330,
      "urg": 2331,
      "Ġreven": 2332,
      "Ġfact": 2333,
      "Organ": 2334,
      "Ġarticle": 2335,
      "Ġaccep": 2336,
      "Ġperform": 2337,
      "Ġconv": 2338,
      "Ġproject": 2339,
      "truct": 2340,
      "//": 2341,
      "ones": 2342,
      "Ġorganisations": 2343,
      "tenti": 2344,
      "crimination": 2345,
      "Ġsignific": 2346,
      "Ġcontain": 2347,
      "ĠmÃ©d": 2348,
      "arly": 2349,
      "ecess": 2350,
      "Ġstud": 2351,
      "Ġsame": 2352,
      "Ġparticulier": 2353,
      "AP": 2354,
      "ute": 2355,
      "Ġorganizations": 2356,
      "ĠServices": 2357,
      "Ġsen": 2358,
      "ĠBureau": 2359,
      "ttp": 2360,
      "ENT": 2361,
      "ĠService": 2362,
      "Ġachie": 2363,
      "Ġdomaine": 2364,
      "://": 2365,
      "Con": 2366,
      "ception": 2367,
      "andid": 2368,
      "Ġcharg": 2369,
      "Ġcare": 2370,
      "Ġdesign": 2371,
      "ee": 2372,
      "Ġproced": 2373,
      "Ġrelative": 2374,
      "Ġdistrib": 2375,
      "lectron": 2376,
      "Ġencore": 2377,
      "Ch": 2378,
      "17": 2379,
      "uel": 2380,
      "Ã©ch": 2381,
      "till": 2382,
      "Ġindividual": 2383,
      "onne": 2384,
      "Ġdetermin": 2385,
      "Ġali": 2386,
      "Ġexig": 2387,
      "yant": 2388,
      "Ġsatisf": 2389,
      "ĠFin": 2390,
      "Ġdispositions": 2391,
      "www": 2392,
      "Ġaw": 2393,
      "Ġtype": 2394,
      "ogn": 2395,
      "Ġassistance": 2396,
      "ĠBoard": 2397,
      "Ġci": 2398,
      "ension": 2399,
      "Ġliv": 2400,
      "ĠGroup": 2401,
      "Ġintern": 2402,
      "Ġinitiatives": 2403,
      "Ġ000": 2404,
      "ĠqualitÃ©": 2405,
      "Ġoffer": 2406,
      "ĠDÃ©": 2407,
      "pose": 2408,
      "Ġpossibil": 2409,
      "ĠcoÃ»": 2410,
      "Ġnationale": 2411,
      "Ġpris": 2412,
      "Ġestim": 2413,
      "Ġdevrait": 2414,
      "ĠsociÃ©tÃ©": 2415,
      "Ġobjectifs": 2416,
      "Ġexamin": 2417,
      "unic": 2418,
      "Ġbefore": 2419,
      "ĠGroupe": 2420,
      "Ġmettre": 2421,
      "Cette": 2422,
      "Ġworld": 2423,
      "Ġnote": 2424,
      "ĠApp": 2425,
      "EM": 2426,
      "Ġcertains": 2427,
      "Ġinclude": 2428,
      "af": 2429,
      "nexe": 2430,
      "ATION": 2431,
      "Ġbenef": 2432,
      "ii": 2433,
      "ĠSy": 2434,
      "aking": 2435,
      "Ġcommercial": 2436,
      "Ġserv": 2437,
      "Ãªte": 2438,
      "Ġ22": 2439,
      "Ġmarket": 2440,
      "ick": 2441,
      "ĠCor": 2442,
      "ĠmarchÃ©": 2443,
      "ders": 2444,
      "Ġcandid": 2445,
      "Ġeducation": 2446,
      "Ġquel": 2447,
      "ĠTribunal": 2448,
      "Ġwhat": 2449,
      "Ġlic": 2450,
      "org": 2451,
      "Ġ21": 2452,
      "Ġadministra": 2453,
      "Ġsujet": 2454,
      "ĠcontrÃ´le": 2455,
      "trang": 2456,
      "Ġthree": 2457,
      "alog": 2458,
      "ustry": 2459,
      "ird": 2460,
      "Ġaid": 2461,
      "ĠSecretary": 2462,
      "mework": 2463,
      "illes": 2464,
      "Union": 2465,
      "ĠbÃ©n": 2466,
      "fois": 2467,
      "ression": 2468,
      "Ġconsul": 2469,
      "Ġnecess": 2470,
      "tivitÃ©": 2471,
      "How": 2472,
      "nov": 2473,
      "ĠUnion": 2474,
      "Ġstaff": 2475,
      "ica": 2476,
      "ĠFr": 2477,
      "Ġdou": 2478,
      "ank": 2479,
      "ler": 2480,
      "Ġproble": 2481,
      "At": 2482,
      "Ġnos": 2483,
      "Ġallow": 2484,
      "iller": 2485,
      "Ġcommunication": 2486,
      "ps": 2487,
      "Ġcommit": 2488,
      "Ġrelevant": 2489,
      "ĠÃ©ch": 2490,
      "enci": 2491,
      "Ġentreprises": 2492,
      "Ġprendre": 2493,
      "Ġopportun": 2494,
      "ĠAfric": 2495,
      "aim": 2496,
      "Ġcontrol": 2497,
      "Ces": 2498,
      "gg": 2499,
      "Ġreconn": 2500,
      "co": 2501,
      "ĠrÃ´le": 2502,
      "ĠPlan": 2503,
      "liament": 2504,
      "lÃ¨": 2505,
      "Ġinvesti": 2506,
      "urance": 2507,
      "ask": 2508,
      "RC": 2509,
      "ĠnÃ©g": 2510,
      "âĢ¦": 2511,
      "ĠannÃ©es": 2512,
      "22": 2513,
      "ield": 2514,
      "oph": 2515,
      "ĠComp": 2516,
      "ories": 2517,
      "Ġsix": 2518,
      "day": 2519,
      "Ġ23": 2520,
      "ĠOffice": 2521,
      "ĠAu": 2522,
      "Ġsee": 2523,
      "Ġpublique": 2524,
      "Ġpersonne": 2525,
      "ĠOntario": 2526,
      "Ġown": 2527,
      "oires": 2528,
      "Ġfonctionn": 2529,
      "RE": 2530,
      "Ġlegal": 2531,
      "Ġterror": 2532,
      "Ġregul": 2533,
      "ĠPrÃ©sident": 2534,
      "erve": 2535,
      "Ã©rer": 2536,
      "Am": 2537,
      "ĠPresident": 2538,
      "ived": 2539,
      "uf": 2540,
      "Ġfois": 2541,
      "Ġ31": 2542,
      "Ġpaix": 2543,
      "UE": 2544,
      "Ġlarge": 2545,
      "any": 2546,
      "Ġatte": 2547,
      "Ã©rations": 2548,
      "Ġvertu": 2549,
      "Ġposition": 2550,
      "Ġproper": 2551,
      "ĠWork": 2552,
      "Ġapproach": 2553,
      "Ġpartn": 2554,
      "Ġjurid": 2555,
      "orth": 2556,
      "Ġgroupes": 2557,
      "ront": 2558,
      "Ġpotenti": 2559,
      "aide": 2560,
      "Ġfil": 2561,
      "men": 2562,
      "Ġher": 2563,
      "Ġaur": 2564,
      "Ġmillion": 2565,
      "Ġbasis": 2566,
      "imum": 2567,
      "Ġ50": 2568,
      "ality": 2569,
      "ĠPublic": 2570,
      "Ġsector": 2571,
      "sign": 2572,
      "Ġfig": 2573,
      "Ġamong": 2574,
      "Ġexemple": 2575,
      "ticles": 2576,
      "jects": 2577,
      "examen": 2578,
      "60": 2579,
      "ove": 2580,
      "tation": 2581,
      "Ġorganismes": 2582,
      "OP": 2583,
      "Ġcooperation": 2584,
      "ĠmaniÃ¨re": 2585,
      "Ġauc": 2586,
      "Ġmater": 2587,
      "ah": 2588,
      "Ġtransfer": 2589,
      "SC": 2590,
      "environnement": 2591,
      "Ġceux": 2592,
      "Ġrelated": 2593,
      "be": 2594,
      "lace": 2595,
      "Ġconcerne": 2596,
      "Ġplusieurs": 2597,
      "Ġhist": 2598,
      "loc": 2599,
      "ĠDepartment": 2600,
      "assi": 2601,
      "Ġ1998": 2602,
      "Ġgen": 2603,
      "Ġrelatives": 2604,
      "........": 2605,
      "ink": 2606,
      "ĠrÃ¨glement": 2607,
      "ĠIN": 2608,
      "utilisation": 2609,
      "Ġsimp": 2610,
      "ĠconformÃ©ment": 2611,
      "ĠfÃ©dÃ©r": 2612,
      "ommes": 2613,
      "vers": 2614,
      "Ã¯": 2615,
      "ĠHuman": 2616,
      "Ġtravaux": 2617,
      "cul": 2618,
      "Ġrole": 2619,
      "Ġcivil": 2620,
      "Ġanalys": 2621,
      "ĠInc": 2622,
      "ime": 2623,
      "quement": 2624,
      "02": 2625,
      "Ġtaux": 2626,
      "Ġmoyen": 2627,
      "Organisation": 2628,
      "Ġcin": 2629,
      "entral": 2630,
      "Ġill": 2631,
      "orting": 2632,
      "Ġdonc": 2633,
      "Ġbil": 2634,
      "ervation": 2635,
      "rique": 2636,
      "There": 2637,
      "Ġneeds": 2638,
      "Ġchange": 2639,
      "airs": 2640,
      "Ġpolitical": 2641,
      "ges": 2642,
      "Ġrad": 2643,
      "ĠRights": 2644,
      "Acc": 2645,
      "cembre": 2646,
      "vez": 2647,
      "Ġvic": 2648,
      "ĠadoptÃ©": 2649,
      "ceed": 2650,
      "ĠamÃ©li": 2651,
      "Ġpor": 2652,
      "Ġhand": 2653,
      "Ġtant": 2654,
      "isc": 2655,
      "Ġrequirements": 2656,
      "Je": 2657,
      "ĠZ": 2658,
      "Ġmont": 2659,
      "ĠconsÃ©qu": 2660,
      "ublique": 2661,
      "OC": 2662,
      "mall": 2663,
      "Ġexamp": 2664,
      "Ġbr": 2665,
      "Une": 2666,
      "Ġfer": 2667,
      "Ġpouvoir": 2668,
      "ĠSecrÃ©taire": 2669,
      "ĠAm": 2670,
      "Ġnouveau": 2671,
      "unes": 2672,
      "ĠRec": 2673,
      "ĠrÃ©pond": 2674,
      "IP": 2675,
      "Ġ/": 2676,
      "Ġreas": 2677,
      "ivision": 2678,
      "Ġpeti": 2679,
      "view": 2680,
      "Ġvisant": 2681,
      "ĠeuropÃ©en": 2682,
      "ĠRepublic": 2683,
      "cement": 2684,
      "bilitÃ©": 2685,
      "Ġmonde": 2686,
      "Ġbased": 2687,
      "Ġregional": 2688,
      "Ġviolence": 2689,
      "Ġpendant": 2690,
      "road": 2691,
      "Ġdepuis": 2692,
      "mission": 2693,
      "ĠCont": 2694,
      "Ġremp": 2695,
      "Si": 2696,
      "ness": 2697,
      "istan": 2698,
      "Ġfuture": 2699,
      "tional": 2700,
      "istes": 2701,
      "ĠreÃ§": 2702,
      "Ġwithout": 2703,
      "Ġpoints": 2704,
      "Ġbecause": 2705,
      "Ġrap": 2706,
      "Ġsoient": 2707,
      "Ġsubmit": 2708,
      "iÃ©": 2709,
      "Ã©di": 2710,
      "ouver": 2711,
      "lements": 2712,
      "tics": 2713,
      "pes": 2714,
      "Ġ100": 2715,
      "aces": 2716,
      "ĠprocÃ©": 2717,
      "Ġworking": 2718,
      "Ġca": 2719,
      "pond": 2720,
      "rier": 2721,
      "ock": 2722,
      "ĠOrgan": 2723,
      "iversity": 2724,
      "Ġbesoins": 2725,
      "Ġgrow": 2726,
      "Ġseu": 2727,
      "Ġestablished": 2728,
      "03": 2729,
      "No": 2730,
      "Ġeffectu": 2731,
      "quelle": 2732,
      "anding": 2733,
      "Ã©publique": 2734,
      "Ġperman": 2735,
      "Ġguid": 2736,
      "Ġlog": 2737,
      "ĠSecurity": 2738,
      "ledge": 2739,
      "ina": 2740,
      "Ġgrande": 2741,
      "Unis": 2742,
      "Ġdestin": 2743,
      "Ġnouvelles": 2744,
      "Ġtaken": 2745,
      "dit": 2746,
      "Ġrecogn": 2747,
      "ĠTrans": 2748,
      "ctu": 2749,
      "onom": 2750,
      "2005": 2751,
      "Ġappropriate": 2752,
      "Ġlut": 2753,
      "ĠprÃ©sente": 2754,
      "eff": 2755,
      "Ġbre": 2756,
      "Ġwater": 2757,
      "Ġdoes": 2758,
      "Ġaspec": 2759,
      "Ġayant": 2760,
      "Ġlo": 2761,
      "ator": 2762,
      "Ġlaquelle": 2763,
      "Ġesp": 2764,
      "Ã©tabl": 2765,
      "Ġlike": 2766,
      "Ġjusqu": 2767,
      "23": 2768,
      "Ġpu": 2769,
      "Ġpeace": 2770,
      "Ġnecessary": 2771,
      "arb": 2772,
      "ross": 2773,
      "Ġcrit": 2774,
      "ators": 2775,
      "CT": 2776,
      "Ġrapports": 2777,
      "Ġresults": 2778,
      "Ġglobal": 2779,
      "ĠdÃ©lÃ©g": 2780,
      "Ġcontribution": 2781,
      "iginal": 2782,
      "Ġintegr": 2783,
      "Ġagric": 2784,
      "24": 2785,
      "Ġfoc": 2786,
      "ately": 2787,
      "import": 2788,
      "Ġmillions": 2789,
      "ification": 2790,
      "line": 2791,
      "Ġway": 2792,
      "Ġsitu": 2793,
      "Ġissue": 2794,
      "Ġprofessionn": 2795,
      "Ġsavoir": 2796,
      "Ġseront": 2797,
      "However": 2798,
      "oms": 2799,
      "ouse": 2800,
      "Ġnow": 2801,
      "Ġdiscrimination": 2802,
      "ĠbÃ©nÃ©": 2803,
      "Ġwhether": 2804,
      "Ġmois": 2805,
      "Ġtrade": 2806,
      "Ġpromotion": 2807,
      "amb": 2808,
      "missions": 2809,
      "wa": 2810,
      "Ġtreat": 2811,
      "ociation": 2812,
      "Ġadopted": 2813,
      "ls": 2814,
      "ases": 2815,
      "Ġsep": 2816,
      "Ã©rie": 2817,
      "Ġoutre": 2818,
      "________________": 2819,
      "ban": 2820,
      "lain": 2821,
      "rug": 2822,
      "ager": 2823,
      "Ġcompar": 2824,
      "isant": 2825,
      "Ġ26": 2826,
      "Ġdraft": 2827,
      "Ġcoordination": 2828,
      "Ġ&": 2829,
      "ĠPr": 2830,
      "Ġfinancement": 2831,
      "Ġ28": 2832,
      "ports": 2833,
      "ĠprÃ©par": 2834,
      "Ġgroups": 2835,
      "Ġproducts": 2836,
      "Europe": 2837,
      "des": 2838,
      "If": 2839,
      "mar": 2840,
      "Ġplans": 2841,
      "Ġparticipants": 2842,
      "Ġlet": 2843,
      "gc": 2844,
      "...": 2845,
      "Ġdifferent": 2846,
      "nent": 2847,
      "ĠIntern": 2848,
      "Ġsim": 2849,
      "oul": 2850,
      "auc": 2851,
      "Ġmeans": 2852,
      "ĠpremiÃ¨re": 2853,
      "met": 2854,
      "tification": 2855,
      "ening": 2856,
      "Ġdeveloping": 2857,
      "atifs": 2858,
      "ED": 2859,
      "int": 2860,
      "Ġauto": 2861,
      "ices": 2862,
      "Ġhttp": 2863,
      "ĠÃ©v": 2864,
      "press": 2865,
      "Ġcases": 2866,
      "Ġconnaiss": 2867,
      "ĠConference": 2868,
      "EL": 2869,
      "ventions": 2870,
      "Ġaccomp": 2871,
      "avant": 2872,
      "Ġheld": 2873,
      "Ã©can": 2874,
      "fs": 2875,
      "Ġpat": 2876,
      "tenant": 2877,
      "ilding": 2878,
      "rÃªt": 2879,
      "read": 2880,
      "Ġpoursu": 2881,
      "Ġsince": 2882,
      "etwork": 2883,
      "ĠmÃ©th": 2884,
      "âĢĵ": 2885,
      "ĠAff": 2886,
      "tude": 2887,
      "mber": 2888,
      "ĠInd": 2889,
      "ĠWeb": 2890,
      "oreign": 2891,
      "Ġcanadienne": 2892,
      "ha": 2893,
      "ĠproblÃ¨mes": 2894,
      "Ġprogress": 2895,
      "Ġint": 2896,
      "RO": 2897,
      "enda": 2898,
      "isting": 2899,
      "issant": 2900,
      "emploi": 2901,
      "aid": 2902,
      "Ġrefer": 2903,
      "Ġstatis": 2904,
      "Ġ1997": 2905,
      "ĠbÃ©nÃ©fic": 2906,
      "Ġsuite": 2907,
      "Ġpremier": 2908,
      "ĠDecember": 2909,
      "ĠÃ©lev": 2910,
      "atic": 2911,
      "ĠAgency": 2912,
      "ustrie": 2913,
      "CC": 2914,
      "odi": 2915,
      "Ġdeli": 2916,
      "odes": 2917,
      "ĠprocÃ©d": 2918,
      "ĠrÃ©glement": 2919,
      "isÃ©s": 2920,
      "Ġaugment": 2921,
      "Ġcompr": 2922,
      "Ġclaim": 2923,
      "Ġdispon": 2924,
      "Ġincrease": 2925,
      "etter": 2926,
      "Ġste": 2927,
      "ĠrÃ©du": 2928,
      "Ġils": 2929,
      "Ġsignificant": 2930,
      "ĠTer": 2931,
      "Ġprovisions": 2932,
      "sp": 2933,
      "Ġfound": 2934,
      "Ġfix": 2935,
      "ĠInstitu": 2936,
      "Ġgiven": 2937,
      "outh": 2938,
      "Ex": 2939,
      "esp": 2940,
      "ercice": 2941,
      "ĠCourt": 2942,
      "oud": 2943,
      "tenu": 2944,
      "encies": 2945,
      "ĠAcc": 2946,
      "ĠrÃ©f": 2947,
      "Ġjustice": 2948,
      "Ġu": 2949,
      "ĠParliament": 2950,
      "tition": 2951,
      "Ġfre": 2952,
      "Ġanti": 2953,
      "Ġenvironnement": 2954,
      "Ġterme": 2955,
      "Ġaccordance": 2956,
      "Ġconsidered": 2957,
      "Ġseulement": 2958,
      "Ġnouveaux": 2959,
      "ĠvÃ©ri": 2960,
      "Ġavons": 2961,
      "ĠParties": 2962,
      "Ġframework": 2963,
      "vious": 2964,
      "Comm": 2965,
      "alogue": 2966,
      "Af": 2967,
      "sh": 2968,
      "rÃ¨s": 2969,
      "2007": 2970,
      "Ġ27": 2971,
      "Ġcos": 2972,
      "ordre": 2973,
      "ĠEU": 2974,
      "ward": 2975,
      "Ġtable": 2976,
      "Ġvaleur": 2977,
      "Ġmigr": 2978,
      "ĠSo": 2979,
      "Ġimpact": 2980,
      "Ġitem": 2981,
      "issance": 2982,
      "Ġobligations": 2983,
      "Ġdefin": 2984,
      "Ġwhile": 2985,
      "Ġnouvelle": 2986,
      "05": 2987,
      "tie": 2988,
      "Ġpuis": 2989,
      "accÃ¨s": 2990,
      "Ġresult": 2991,
      "respond": 2992,
      "Ġmeille": 2993,
      "Ġlangu": 2994,
      "Ġlist": 2995,
      "Ġcause": 2996,
      "These": 2997,
      "Ġconsomm": 2998,
      "other": 2999,
      "Ġfinal": 3000,
      "pÃ©ri": 3001,
      "Ġmonth": 3002,
      "Ġstrength": 3003,
      "Â«": 3004,
      "ather": 3005,
      "Ġjud": 3006,
      "Ġclim": 3007,
      "Ġintro": 3008,
      "Ġengag": 3009,
      "ĠRapp": 3010,
      "Ġinformations": 3011,
      "tones": 3012,
      "ĠPh": 3013,
      "Ġexpec": 3014,
      "ender": 3015,
      "tudes": 3016,
      "AM": 3017,
      "ĠdÃ©s": 3018,
      "Ġgouvern": 3019,
      "ĠdÃ©j": 3020,
      "Ġ1996": 3021,
      "Ġsubs": 3022,
      "ĠÃ©taient": 3023,
      "ued": 3024,
      "ĠmÃ©can": 3025,
      "ĠDes": 3026,
      "Ġfonds": 3027,
      "ĠnÃ©cessaire": 3028,
      "Ġexist": 3029,
      "Ġord": 3030,
      "Ġrecord": 3031,
      "Ġprix": 3032,
      "Ġquality": 3033,
      "Ġsystems": 3034,
      "Ġfull": 3035,
      "26": 3036,
      "Ġbeh": 3037,
      "Ġjou": 3038,
      "Ġmoment": 3039,
      "lin": 3040,
      "Ġcomment": 3041,
      "Ġforce": 3042,
      "Ġ197": 3043,
      "Ġproposed": 3044,
      "29": 3045,
      "He": 3046,
      "chtones": 3047,
      "pendant": 3048,
      "ergy": 3049,
      "Ġ29": 3050,
      "ĠdÃ©penses": 3051,
      "lac": 3052,
      "Ġgre": 3053,
      "Ġexample": 3054,
      "ĠPer": 3055,
      "Ġacqu": 3056,
      "Ġproduit": 3057,
      "Ġraison": 3058,
      "Ġstructure": 3059,
      "Ġsuff": 3060,
      "ĠII": 3061,
      "Ġsaid": 3062,
      "Ġsoutien": 3063,
      "Ġsmall": 3064,
      "Ġtradition": 3065,
      "ctor": 3066,
      "ology": 3067,
      "Ġexplo": 3068,
      "Ġfun": 3069,
      "Ġsugg": 3070,
      "enf": 3071,
      "eter": 3072,
      "Ġim": 3073,
      "Ġfaut": 3074,
      "forme": 3075,
      "ĠintÃ©gr": 3076,
      "jour": 3077,
      "Ġmy": 3078,
      "ĠAmer": 3079,
      "clud": 3080,
      "27": 3081,
      "IL": 3082,
      "Ġgovern": 3083,
      "ĠEnvironment": 3084,
      "Ġoffici": 3085,
      "Ġfind": 3086,
      "Ġresponsibil": 3087,
      "itaire": 3088,
      "tage": 3089,
      "Ġmoder": 3090,
      "ensemble": 3091,
      "Ġinvest": 3092,
      "eptem": 3093,
      "04": 3094,
      "ipe": 3095,
      "Ġcertaines": 3096,
      "ĠResearch": 3097,
      "iver": 3098,
      "ĠRo": 3099,
      "Ġvicti": 3100,
      "tivitÃ©s": 3101,
      "Ġpersons": 3102,
      "Ġcommerce": 3103,
      "inf": 3104,
      "ĠRÃ©publique": 3105,
      "EP": 3106,
      "Ġhabit": 3107,
      "atique": 3108,
      "ĠJune": 3109,
      "Ġpolicies": 3110,
      "Ġaut": 3111,
      "ĠAt": 3112,
      "the": 3113,
      "hod": 3114,
      "isÃ©": 3115,
      "Ġpropri": 3116,
      "28": 3117,
      "ouvel": 3118,
      "ĠprÃ©s": 3119,
      "ĠparticuliÃ¨re": 3120,
      "Ġtraitement": 3121,
      "Ġcorrespond": 3122,
      "Ġparty": 3123,
      "less": 3124,
      "retariat": 3125,
      "tices": 3126,
      "eptember": 3127,
      "Ġcop": 3128,
      "Ġland": 3129,
      "fications": 3130,
      "07": 3131,
      "ĠpÃ©n": 3132,
      "Ġreports": 3133,
      "Ġpourrait": 3134,
      "ĠsystÃ¨mes": 3135,
      "Ġrisk": 3136,
      ".)": 3137,
      "Elle": 3138,
      "Ġprojects": 3139,
      "Ġprincipal": 3140,
      "ĠProtoc": 3141,
      "alestin": 3142,
      "Ġformul": 3143,
      "Ġfederal": 3144,
      "ĠÃ©trang": 3145,
      "Ġappar": 3146,
      "Ġsubject": 3147,
      "mal": 3148,
      "Ġamount": 3149,
      "Ġprovides": 3150,
      "iment": 3151,
      "Ġpage": 3152,
      "ury": 3153,
      "Ġunders": 3154,
      "Ġvarious": 3155,
      "ists": 3156,
      "ĠAc": 3157,
      "Ġenvironmental": 3158,
      "eu": 3159,
      "Ã©ducation": 3160,
      "uly": 3161,
      "agne": 3162,
      "Ġimportance": 3163,
      "Ġcompos": 3164,
      "Ġimpos": 3165,
      "Ġfavor": 3166,
      "Ġmontant": 3167,
      "quel": 3168,
      "ĠCode": 3169,
      "tembre": 3170,
      "bs": 3171,
      "ĠInformation": 3172,
      "Ġmaterial": 3173,
      "ĠChar": 3174,
      "Ġpratiques": 3175,
      "Ġchez": 3176,
      "yp": 3177,
      "Ġcentre": 3178,
      "Ġinde": 3179,
      "uss": 3180,
      "yd": 3181,
      "Ġaffec": 3182,
      "Ġprom": 3183,
      "Ġcollaboration": 3184,
      "Ġsem": 3185,
      "Ġevery": 3186,
      "Ġarr": 3187,
      "Ġkey": 3188,
      "Ġaspects": 3189,
      "dure": 3190,
      "Ġcommon": 3191,
      "ĠdÃ©jÃł": 3192,
      "rain": 3193,
      "illet": 3194,
      "Ġcapacity": 3195,
      "Ġmulti": 3196,
      "Canad": 3197,
      "Ġaccount": 3198,
      "Ġministre": 3199,
      "Ġreceived": 3200,
      "IV": 3201,
      "Rec": 3202,
      "Ġrest": 3203,
      "Ġsustain": 3204,
      "uÃ©bec": 3205,
      "ians": 3206,
      "Ġeven": 3207,
      "oss": 3208,
      "gin": 3209,
      "limin": 3210,
      "Ġsein": 3211,
      "Ġpolice": 3212,
      "echan": 3213,
      "Ġinternationales": 3214,
      "Ġlevels": 3215,
      "Ġtechnologies": 3216,
      "gation": 3217,
      "way": 3218,
      "itable": 3219,
      "identi": 3220,
      "ĠDis": 3221,
      "lÃ©ments": 3222,
      "Ġofficial": 3223,
      "cell": 3224,
      "âĹ": 3225,
      "Ġfield": 3226,
      "ĠPe": 3227,
      "acy": 3228,
      "ĠJan": 3229,
      "valu": 3230,
      "ience": 3231,
      "uit": 3232,
      "Ġdeb": 3233,
      "isse": 3234,
      "Ġless": 3235,
      "Ġminor": 3236,
      "ĠX": 3237,
      "Ġtechniques": 3238,
      "Ġquat": 3239,
      "Ġsoul": 3240,
      "Ġauthorities": 3241,
      "Ġelles": 3242,
      "Ġmax": 3243,
      "Ġcamp": 3244,
      "illance": 3245,
      "appro": 3246,
      "ĠauprÃ¨s": 3247,
      "tÃ©rie": 3248,
      "Ġatta": 3249,
      "asse": 3250,
      "Ġprovision": 3251,
      "Ġmission": 3252,
      "ides": 3253,
      "Ġdevraient": 3254,
      "ox": 3255,
      "Ġair": 3256,
      "alf": 3257,
      "Ġfour": 3258,
      "iled": 3259,
      "Ag": 3260,
      "hib": 3261,
      "inÃ©": 3262,
      "side": 3263,
      "ĠStr": 3264,
      "Ġdeveloped": 3265,
      "Ġknowledge": 3266,
      "Ġvig": 3267,
      "ĠMe": 3268,
      "ĠMay": 3269,
      "liance": 3270,
      "Ġsoins": 3271,
      "Ġcelui": 3272,
      "tta": 3273,
      "ĠdÃ©ta": 3274,
      "Ġinstruments": 3275,
      "onds": 3276,
      "âĹ¦": 3277,
      "Ġfab": 3278,
      "Ġchall": 3279,
      "Ġcompe": 3280,
      "2001": 3281,
      "Ġcy": 3282,
      "merg": 3283,
      "Ġagreement": 3284,
      "Ġconduct": 3285,
      "ope": 3286,
      "amÃ©li": 3287,
      "Ġdid": 3288,
      "Ġcover": 3289,
      "Ġindustry": 3290,
      "oup": 3291,
      "urr": 3292,
      "Ġreal": 3293,
      "Ġmonitor": 3294,
      "ĠCommunity": 3295,
      "ril": 3296,
      "Ġprograms": 3297,
      "orteur": 3298,
      "ĠcrÃ©ation": 3299,
      "ĠInternet": 3300,
      "Ġactions": 3301,
      "Ġarm": 3302,
      "ĠMarch": 3303,
      "2006": 3304,
      "Ġfood": 3305,
      "Ġexpress": 3306,
      "aprÃ¨s": 3307,
      "Ġindustri": 3308,
      "labor": 3309,
      "Ġjeunes": 3310,
      "Ġenter": 3311,
      "ĠmatÃ©ri": 3312,
      "HE": 3313,
      "Ġeffet": 3314,
      "Ġcosts": 3315,
      "cÃ©": 3316,
      "ĸª": 3317,
      "asing": 3318,
      "vidence": 3319,
      "ĠParlement": 3320,
      "ĠannÃ©e": 3321,
      "Ġcapital": 3322,
      "vier": 3323,
      "Ġcelle": 3324,
      "ueur": 3325,
      "ĠconsidÃ©r": 3326,
      "Ġsuccess": 3327,
      "Ġfocus": 3328,
      "ttawa": 3329,
      "ying": 3330,
      "administration": 3331,
      "acitÃ©": 3332,
      "ĠdÃ©cisions": 3333,
      "Ġcontributions": 3334,
      "lected": 3335,
      "Ġconcentr": 3336,
      "Ġlutte": 3337,
      "63": 3338,
      "off": 3339,
      "ĠSeptember": 3340,
      "ĠMinistÃ¨re": 3341,
      "ĠManagement": 3342,
      "Ġsources": 3343,
      "Ġextra": 3344,
      "Ġlife": 3345,
      "Ġunderta": 3346,
      "Ġdurable": 3347,
      "Ġimprove": 3348,
      "Ġgaranti": 3349,
      "Ġrecommandations": 3350,
      "tle": 3351,
      "Â°": 3352,
      "Ġprest": 3353,
      "ĠdonnÃ©": 3354,
      "tul": 3355,
      "wards": 3356,
      "ĠÃ©g": 3357,
      "Ġsever": 3358,
      "LE": 3359,
      "urant": 3360,
      "ĠBr": 3361,
      "Ġadj": 3362,
      "leurs": 3363,
      "Ġthen": 3364,
      "minal": 3365,
      "2003": 3366,
      "Ġdirection": 3367,
      "ĠWorld": 3368,
      "Ġschool": 3369,
      "sec": 3370,
      "Ġfins": 3371,
      "Ġemploye": 3372,
      "Ġgoods": 3373,
      "hen": 3374,
      "Ġinterest": 3375,
      "crib": 3376,
      "olutions": 3377,
      "Ġconfl": 3378,
      "Ġtherefore": 3379,
      "Ġposi": 3380,
      "rais": 3381,
      "ustr": 3382,
      "ĠAgre": 3383,
      "Ġmoyens": 3384,
      "ĠDirec": 3385,
      "option": 3386,
      "Ġcarri": 3387,
      "Ġnormes": 3388,
      "mploy": 3389,
      "Ġchar": 3390,
      "ĠÃĥ": 3391,
      "OS": 3392,
      "ONU": 3393,
      "Ġcorre": 3394,
      "ĠFund": 3395,
      "Ġaffaires": 3396,
      "occup": 3397,
      "IR": 3398,
      "Ġetc": 3399,
      "ĠÃ©lÃ©ments": 3400,
      "ĠIndi": 3401,
      "ght": 3402,
      "Ġpermis": 3403,
      "ĠprocÃ©dure": 3404,
      "06": 3405,
      "ĠÃ©conomiques": 3406,
      "yn": 3407,
      "inion": 3408,
      "issent": 3409,
      "Ġefficace": 3410,
      "ibles": 3411,
      "Ġtri": 3412,
      "Ġmondiale": 3413,
      "rer": 3414,
      "yl": 3415,
      "Ġ,": 3416,
      "Ġpurs": 3417,
      "Ġaccoun": 3418,
      "ĠnÃ©cessaires": 3419,
      "TA": 3420,
      "Ġeu": 3421,
      "To": 3422,
      "tively": 3423,
      "Ġbal": 3424,
      "ĠDivision": 3425,
      "ĠrÃ©c": 3426,
      "objet": 3427,
      "ĠRussi": 3428,
      "Ġmember": 3429,
      "Ġserait": 3430,
      "jours": 3431,
      "uant": 3432,
      "itre": 3433,
      "Ġtran": 3434,
      "Ġconsultations": 3435,
      "CR": 3436,
      "Ġdeleg": 3437,
      "Ġabove": 3438,
      "Ġlorsque": 3439,
      "âĢ¦âĢ¦": 3440,
      "Ġmechan": 3441,
      "Ġwww": 3442,
      "Ġparticularly": 3443,
      "ĠPri": 3444,
      "Ã©raux": 3445,
      "tm": 3446,
      "olid": 3447,
      "Ġrisque": 3448,
      "ĠCar": 3449,
      "Ġliber": 3450,
      "Ġdomaines": 3451,
      "ctober": 3452,
      "uary": 3453,
      "Ġbetter": 3454,
      "ĠprotÃ©": 3455,
      "ĠFirst": 3456,
      "Ġcommunities": 3457,
      "Ġprim": 3458,
      "exercice": 3459,
      "ĠtÃ©lÃ©": 3460,
      "appli": 3461,
      "Ġdialogue": 3462,
      "Ġterms": 3463,
      "Ġtechnical": 3464,
      "Ġincreased": 3465,
      "Ġrecommendations": 3466,
      "Ġattention": 3467,
      "Ġrecent": 3468,
      "sc": 3469,
      "ĠopÃ©rations": 3470,
      "gÃ©": 3471,
      "Ġcost": 3472,
      "ĠCl": 3473,
      "ĠGouvernement": 3474,
      "Ġface": 3475,
      "ĠOr": 3476,
      "iation": 3477,
      "Ã¨ne": 3478,
      "Ġ40": 3479,
      "Ġmethod": 3480,
      "Ġaim": 3481,
      "Ġforces": 3482,
      "Ġchap": 3483,
      "Ġrenforcer": 3484,
      "ĠSh": 3485,
      "Ġassessment": 3486,
      "Ġrate": 3487,
      "Ġtenu": 3488,
      "Ġel": 3489,
      "ĠautoritÃ©s": 3490,
      "Ġdifficult": 3491,
      "21": 3492,
      "come": 3493,
      "iner": 3494,
      "tÃ©e": 3495,
      "ished": 3496,
      "Ġclass": 3497,
      "Ġvalue": 3498,
      "Ġdang": 3499,
      "Ġexerc": 3500,
      "Ġappel": 3501,
      "Ġfunding": 3502,
      "IH": 3503,
      "Mr": 3504,
      "vant": 3505,
      "ĠSch": 3506,
      "ĠEconomic": 3507,
      "Ġpertin": 3508,
      "Ã©rique": 3509,
      "otel": 3510,
      "Ġanim": 3511,
      "Ġarticles": 3512,
      "Ġshow": 3513,
      "tended": 3514,
      "2002": 3515,
      "effic": 3516,
      "ume": 3517,
      "order": 3518,
      "otal": 3519,
      "Ġ60": 3520,
      "Ġlegislation": 3521,
      "utes": 3522,
      "appel": 3523,
      "ĠsupplÃ©ment": 3524,
      "Ġperformance": 3525,
      "Ġentr": 3526,
      "Ġstandards": 3527,
      "ling": 3528,
      "ĠSta": 3529,
      "ĠNove": 3530,
      "anvier": 3531,
      "Ġjuin": 3532,
      "Accord": 3533,
      "Ġdue": 3534,
      "annÃ©e": 3535,
      "ote": 3536,
      "ĠDate": 3537,
      "Ġ--": 3538,
      "Ġadditional": 3539,
      "time": 3540,
      "Ġavaient": 3541,
      "Ġcondition": 3542,
      "ĠSpecial": 3543,
      "2004": 3544,
      "Ġtrava": 3545,
      "ĠSocial": 3546,
      "Ġcelles": 3547,
      "ĠAN": 3548,
      "Ġrestric": 3549,
      "Ġapply": 3550,
      "goti": 3551,
      "bour": 3552,
      "Ġev": 3553,
      "ĠAir": 3554,
      "Ġexpos": 3555,
      "dies": 3556,
      "Ġ33": 3557,
      "iÃ©s": 3558,
      "Ġmieux": 3559,
      "ĠSp": 3560,
      "ĠÃ©n": 3561,
      "Ġprivate": 3562,
      "ĠrÃ©union": 3563,
      "Ġâĸª": 3564,
      "grÃ©": 3565,
      "Ã¨le": 3566,
      "ief": 3567,
      "Ġabs": 3568,
      "Ġclients": 3569,
      "elines": 3570,
      "ĠConfÃ©rence": 3571,
      "57": 3572,
      "US": 3573,
      "utive": 3574,
      "Ġunivers": 3575,
      "berta": 3576,
      "ĠcapacitÃ©": 3577,
      "Ġproperty": 3578,
      "usion": 3579,
      "Ġbar": 3580,
      "ĠImp": 3581,
      "Ġactive": 3582,
      "Ġfl": 3583,
      "phone": 3584,
      "Ġusing": 3585,
      "Ġremain": 3586,
      "Ġcontact": 3587,
      "Ġsaf": 3588,
      "Ġlib": 3589,
      "Ġmalad": 3590,
      "ĠPrem": 3591,
      "ior": 3592,
      "ĠdÃ©cembre": 3593,
      "ipment": 3594,
      "Ġseptembre": 3595,
      "Ġ+": 3596,
      "orter": 3597,
      "icro": 3598,
      "ĠOctober": 3599,
      "Ġemployment": 3600,
      "Ġcroissance": 3601,
      "Ġautochtones": 3602,
      "ey": 3603,
      "itaires": 3604,
      "Ġtranspar": 3605,
      "Ġcomplex": 3606,
      "Ġdistribution": 3607,
      "Ġsimil": 3608,
      "icy": 3609,
      "Ġ1995": 3610,
      "):": 3611,
      "va": 3612,
      "Ġsource": 3613,
      "arch": 3614,
      "Ġrelig": 3615,
      "Ġinitiative": 3616,
      "dÃ©": 3617,
      "Ġliste": 3618,
      "atoire": 3619,
      "illi": 3620,
      "ĠdÃ©pos": 3621,
      "ĠJuly": 3622,
      "industrie": 3623,
      "Ġsurveillance": 3624,
      "ĠcoÃ»ts": 3625,
      "Ġeffets": 3626,
      "Ġmaintain": 3627,
      "Ġdeta": 3628,
      "Ġconstruction": 3629,
      "Ġprep": 3630,
      "Ġfournir": 3631,
      "rastructure": 3632,
      "TR": 3633,
      "Ġpati": 3634,
      "Ġdeal": 3635,
      "Ġassurer": 3636,
      "Ġnationales": 3637,
      "Ġtechnique": 3638,
      "pendent": 3639,
      "ĠNovember": 3640,
      "eal": 3641,
      "mon": 3642,
      "Ġdon": 3643,
      "Ġdos": 3644,
      "Ġfish": 3645,
      "ends": 3646,
      "ival": 3647,
      "cts": 3648,
      "Ġsau": 3649,
      "Ġstill": 3650,
      "Ġbroad": 3651,
      "2000": 3652,
      "ĠAgreement": 3653,
      "ik": 3654,
      "Ġsites": 3655,
      "Ġur": 3656,
      "tific": 3657,
      "change": 3658,
      "autre": 3659,
      "Ġconsultation": 3660,
      "Ġinstall": 3661,
      "ĠJanuary": 3662,
      "hold": 3663,
      "ĠQue": 3664,
      "Ġfrais": 3665,
      "Ġtoujours": 3666,
      "htm": 3667,
      "oth": 3668,
      "Ġcommunications": 3669,
      "40": 3670,
      "43": 3671,
      "pril": 3672,
      "ĠUniversity": 3673,
      "Ġoccup": 3674,
      "Ġreason": 3675,
      "Ġday": 3676,
      "atural": 3677,
      "cipe": 3678,
      "Ġdirective": 3679,
      "ave": 3680,
      "fier": 3681,
      "asion": 3682,
      "ĠMed": 3683,
      "Ġalors": 3684,
      "clÃ©": 3685,
      "They": 3686,
      "ĠministÃ¨re": 3687,
      "Ġconflic": 3688,
      "Ġunderst": 3689,
      "DE": 3690,
      "of": 3691,
      "Ġlarg": 3692,
      "ĠMemb": 3693,
      "ĠstratÃ©gie": 3694,
      "99": 3695,
      "Ġincid": 3696,
      "lex": 3697,
      "trÃ©": 3698,
      "Ġsociale": 3699,
      "Ġrisques": 3700,
      "Ġstudy": 3701,
      "ĠLaw": 3702,
      "uy": 3703,
      "Ġenh": 3704,
      "ĠemployÃ©s": 3705,
      "Ġupon": 3706,
      "Ġbest": 3707,
      "Ġnationaux": 3708,
      "eth": 3709,
      "ological": 3710,
      "ĠDirector": 3711,
      "ĠdÃ©claration": 3712,
      "Ġgrowth": 3713,
      "ready": 3714,
      "uelle": 3715,
      "ĠNord": 3716,
      "Ġconcerned": 3717,
      "Ġoperations": 3718,
      "With": 3719,
      "ĠÃ©lectron": 3720,
      "ĠprogrÃ¨s": 3721,
      "Ġcher": 3722,
      "ĠrÃ©gions": 3723,
      "ĠJus": 3724,
      "cept": 3725,
      "Ġincluded": 3726,
      "ĠdÃ©mocra": 3727,
      "clear": 3728,
      "tructures": 3729,
      "ĠAffairs": 3730,
      "Ġdit": 3731,
      "Ġforme": 3732,
      "itiz": 3733,
      "ĠindÃ©": 3734,
      "Ġprovincial": 3735,
      "intÃ©gr": 3736,
      "Ġmuch": 3737,
      "Ġvigueur": 3738,
      "Ġsafety": 3739,
      "ned": 3740,
      "cles": 3741,
      "Ã¢ce": 3742,
      "rup": 3743,
      "Ġer": 3744,
      "Ġadap": 3745,
      "venant": 3746,
      "Ġsubmitted": 3747,
      "Ġdiv": 3748,
      "Ġvote": 3749,
      "cing": 3750,
      "Ġpap": 3751,
      "rir": 3752,
      "ĠÃ©tant": 3753,
      "unicip": 3754,
      "over": 3755,
      "Ġchanges": 3756,
      "Ã©gard": 3757,
      "ĠFrance": 3758,
      "Ġlesqu": 3759,
      "entrepr": 3760,
      "Ġmars": 3761,
      "\".": 3762,
      "eur": 3763,
      "ĠSub": 3764,
      "Ġsociety": 3765,
      "Ġobjectives": 3766,
      "ĠresponsabilitÃ©": 3767,
      "Ġclear": 3768,
      "ĠAfrica": 3769,
      "gu": 3770,
      "tors": 3771,
      "Ġcall": 3772,
      "thers": 3773,
      "ames": 3774,
      "Ġdomes": 3775,
      "ĠRegion": 3776,
      "aÃ¯": 3777,
      "edi": 3778,
      "Ġread": 3779,
      "Ã©conom": 3780,
      "Ġmondial": 3781,
      "ane": 3782,
      "ĠSection": 3783,
      "atiques": 3784,
      "ĠGr": 3785,
      "Ġjours": 3786,
      "lections": 3787,
      "Ġannual": 3788,
      "lor": 3789,
      "Ġpau": 3790,
      "Ġspe": 3791,
      "Ġconj": 3792,
      "Ġalready": 3793,
      "ĠreprÃ©sentants": 3794,
      "Ġcela": 3795,
      ".\"": 3796,
      "Ġcit": 3797,
      "ĠPl": 3798,
      "Ġdispos": 3799,
      "Ġable": 3800,
      "Ġquanti": 3801,
      "ĠsupÃ©": 3802,
      "ĠOF": 3803,
      "ody": 3804,
      "ĠJo": 3805,
      "Ġsuivi": 3806,
      "Ġprises": 3807,
      "ĠIl": 3808,
      "Ġmandat": 3809,
      "Ġcharge": 3810,
      "Ġcomplain": 3811,
      "Ġprovince": 3812,
      "ĠmÃ©di": 3813,
      "jourd": 3814,
      "PS": 3815,
      "Ġdef": 3816,
      "Ġeconom": 3817,
      "ĠdeuxiÃ¨me": 3818,
      "Ġresponsible": 3819,
      "ET": 3820,
      "hui": 3821,
      "Ġplay": 3822,
      "wan": 3823,
      "Ġ;": 3824,
      "Ġlear": 3825,
      "Ġnegoti": 3826,
      "obs": 3827,
      "ified": 3828,
      "Ġrele": 3829,
      "ĠBri": 3830,
      "Ġprevious": 3831,
      "istry": 3832,
      "Ġprincipes": 3833,
      "ĠproblÃ¨me": 3834,
      "novation": 3835,
      "Ġexclu": 3836,
      "Ġpopulations": 3837,
      "explo": 3838,
      "uk": 3839,
      "Ã©tÃ©s": 3840,
      "Ġcultural": 3841,
      "tÃ©es": 3842,
      "Ġorganization": 3843,
      "spec": 3844,
      "Ġligne": 3845,
      "Ġpil": 3846,
      "Ġcr": 3847,
      "Ġagencies": 3848,
      "assurer": 3849,
      "OL": 3850,
      "Ã©laboration": 3851,
      "Ã»t": 3852,
      "sibles": 3853,
      "duced": 3854,
      "tient": 3855,
      "Ġconsist": 3856,
      "Ġpeup": 3857,
      "Ġarri": 3858,
      "ĠQuÃ©bec": 3859,
      "ĠcommunautÃ©": 3860,
      "abl": 3861,
      "Ġfondament": 3862,
      "armon": 3863,
      "ĠprocÃ©dures": 3864,
      "08": 3865,
      "59": 3866,
      "Ġage": 3867,
      "ĠSud": 3868,
      "Ġ2009": 3869,
      "IM": 3870,
      "vision": 3871,
      "Ġexport": 3872,
      "Ġcontract": 3873,
      "eux": 3874,
      "Ġmembre": 3875,
      "Ġgouvernements": 3876,
      "iture": 3877,
      "onto": 3878,
      "boriginal": 3879,
      "Ġpotential": 3880,
      "Ġdown": 3881,
      "ĠTechn": 3882,
      "Ġapplicable": 3883,
      "ĠrÃ¨gles": 3884,
      "Ġaj": 3885,
      "Ġthird": 3886,
      "oronto": 3887,
      "ĠMo": 3888,
      "though": 3889,
      "titution": 3890,
      "ĠprÃ©cÃ©d": 3891,
      "PP": 3892,
      "Ġtour": 3893,
      "Ġleast": 3894,
      "Ġcommission": 3895,
      "ĠOffic": 3896,
      "Ġ1994": 3897,
      "Ġfamily": 3898,
      "euvre": 3899,
      "ĠApril": 3900,
      "ĠPour": 3901,
      "Ġbeauc": 3902,
      "arian": 3903,
      "Ġcalcul": 3904,
      "Ġbeaucoup": 3905,
      "OT": 3906,
      "ĠNorth": 3907,
      "Office": 3908,
      "Ġlast": 3909,
      "Ġnetwork": 3910,
      "Ġrules": 3911,
      "Ġenergy": 3912,
      "Ġexisting": 3913,
      "Ġheures": 3914,
      "Ġzone": 3915,
      "ĠnuclÃ©": 3916,
      "Ġbenefits": 3917,
      "Ġnav": 3918,
      "ols": 3919,
      "actions": 3920,
      "Ġshe": 3921,
      "ĠWh": 3922,
      "Ġtend": 3923,
      "quÃªte": 3924,
      "Ġfont": 3925,
      "Ġmai": 3926,
      "Ġdonner": 3927,
      "ecutive": 3928,
      "Ġtechnology": 3929,
      "Ġpractices": 3930,
      "itiative": 3931,
      "Article": 3932,
      "Ġhistor": 3933,
      "Ġtari": 3934,
      "Ġni": 3935,
      "ĠexÃ©c": 3936,
      "ĠRÃ¨g": 3937,
      "aison": 3938,
      "ssement": 3939,
      "Ġ1990": 3940,
      "Ġfacilit": 3941,
      "Ġforeign": 3942,
      "Ġorigin": 3943,
      "Ġrequest": 3944,
      "Ġdisposition": 3945,
      "Ġautom": 3946,
      "Ġfabric": 3947,
      "56": 3948,
      "Ġlit": 3949,
      "Ġback": 3950,
      "Ġposte": 3951,
      "Ġstrong": 3952,
      "Ġconsideration": 3953,
      "gen": 3954,
      "paration": 3955,
      "Ġscientif": 3956,
      "DP": 3957,
      "uve": 3958,
      "Ġcust": 3959,
      "ĠcatÃ©g": 3960,
      "Ġminis": 3961,
      "NU": 3962,
      "duce": 3963,
      "urement": 3964,
      "Ġtypes": 3965,
      "Ġaucune": 3966,
      "**": 3967,
      "Ġanother": 3968,
      "ĠSe": 3969,
      "Ġagenda": 3970,
      "Ġsouvent": 3971,
      "Ġsk": 3972,
      "ental": 3973,
      "ular": 3974,
      "Ġclos": 3975,
      "Ġconcerning": 3976,
      "Ġhowever": 3977,
      "Ġquatre": 3978,
      "erver": 3979,
      "ĠUS": 3980,
      "Ġvoy": 3981,
      "claration": 3982,
      "Ġpersonal": 3983,
      "ĠMission": 3984,
      "appui": 3985,
      "Ġprocedures": 3986,
      "ismes": 3987,
      "Ġmer": 3988,
      "veur": 3989,
      "acter": 3990,
      "ither": 3991,
      "ouvoir": 3992,
      "Ġopen": 3993,
      "ĠnÃ©goci": 3994,
      "ĠrÃ©fÃ©rence": 3995,
      "Ġnoted": 3996,
      "Ġpost": 3997,
      "Ġclassi": 3998,
      "88": 3999,
      "Ġfran": 4000,
      "resse": 4001,
      "indre": 4002,
      "ĠdiffÃ©rents": 4003,
      "Ġcontext": 4004,
      "Ġproblems": 4005,
      "Ġtreatment": 4006,
      "iÃ¨": 4007,
      "rab": 4008,
      "ĠRoy": 4009,
      "Ġmention": 4010,
      "tudies": 4011,
      "Ġplein": 4012,
      "Ġtransi": 4013,
      "ufact": 4014,
      "ĠOrganization": 4015,
      "Ġuti": 4016,
      "vÃ©": 4017,
      "Ġven": 4018,
      "osph": 4019,
      "Ġjanvier": 4020,
      "ords": 4021,
      "Ġmeet": 4022,
      "Ġpartenari": 4023,
      "Ġnove": 4024,
      "ĠCanadians": 4025,
      "rench": 4026,
      "49": 4027,
      "by": 4028,
      "avantage": 4029,
      "Ġnovembre": 4030,
      "Ġinflu": 4031,
      "ĠCR": 4032,
      "Ġreach": 4033,
      "Ġidenti": 4034,
      "Ġbelie": 4035,
      "ĠdÃ©terminer": 4036,
      "Ġexigences": 4037,
      "isÃ©e": 4038,
      "dom": 4039,
      "ills": 4040,
      "Ġproviding": 4041,
      "Ġreturn": 4042,
      "Ġadministrative": 4043,
      "cribed": 4044,
      "xim": 4045,
      "alitÃ©s": 4046,
      "Ġgreat": 4047,
      "ĠRegulations": 4048,
      "Ġchangements": 4049,
      "Ġrevenu": 4050,
      "ĠparticuliÃ¨rement": 4051,
      "uels": 4052,
      "xt": 4053,
      "Ġtarg": 4054,
      "ĠReport": 4055,
      "Ġreported": 4056,
      "uge": 4057,
      "ze": 4058,
      "Ġhere": 4059,
      "ĠTur": 4060,
      "exÃ©c": 4061,
      "Ġstatus": 4062,
      "55": 4063,
      "Toute": 4064,
      "Ġradio": 4065,
      "ĠpÃª": 4066,
      "Ġethn": 4067,
      "Ġobtain": 4068,
      "Ġincome": 4069,
      "Ġproposition": 4070,
      "Ġjuillet": 4071,
      "Ġangl": 4072,
      "ĠSw": 4073,
      "Ġattrib": 4074,
      "33": 4075,
      "ira": 4076,
      "uter": 4077,
      "erb": 4078,
      "Ġreform": 4079,
      "Ġrelating": 4080,
      "laborer": 4081,
      "Ġconsulta": 4082,
      "Su": 4083,
      "Ġfisc": 4084,
      "raft": 4085,
      "osp": 4086,
      "ĠmarchÃ©s": 4087,
      "Ġmeetings": 4088,
      "Ġmonitoring": 4089,
      "Ġcitoy": 4090,
      "dess": 4091,
      "ĠcÃ´": 4092,
      "isÃ©es": 4093,
      "Ġgive": 4094,
      "term": 4095,
      "Ġchem": 4096,
      "Ġnext": 4097,
      "Ġcommuni": 4098,
      "Ġniveaux": 4099,
      "organisation": 4100,
      "Ġemployees": 4101,
      ")(": 4102,
      "ouve": 4103,
      "Ġmus": 4104,
      "ateral": 4105,
      "tÃ©ri": 4106,
      "ĠTe": 4107,
      "Ġpartir": 4108,
      "Ġtermes": 4109,
      "Ġpublication": 4110,
      "Ġcontinuer": 4111,
      "47": 4112,
      "oit": 4113,
      "ĠCanadiens": 4114,
      "Ġproduct": 4115,
      "Ġdevant": 4116,
      "ĠÂ»,": 4117,
      "Ġexperience": 4118,
      "Ġpartnership": 4119,
      "Ġpen": 4120,
      "Ġmor": 4121,
      "ĠMal": 4122,
      "Ġactivity": 4123,
      "Ġcinq": 4124,
      "Ġseveral": 4125,
      "government": 4126,
      "Ġsens": 4127,
      "Ġfar": 4128,
      "Ġconvention": 4129,
      "Ġdecisions": 4130,
      "Ġmonths": 4131,
      "Ġevidence": 4132,
      "Ġban": 4133,
      "ienne": 4134,
      "Ġpromote": 4135,
      "ĠIsra": 4136,
      "ĠrÃ©duire": 4137,
      "Ġarrang": 4138,
      "DI": 4139,
      "ked": 4140,
      "Ġcentres": 4141,
      "Ã©tablissement": 4142,
      "67": 4143,
      "Ġear": 4144,
      "Ġrange": 4145,
      "Ġfamille": 4146,
      "Ġexperts": 4147,
      "Ġequipment": 4148,
      "Ġinternationaux": 4149,
      "Ġdomestic": 4150,
      "Ġline": 4151,
      "Ġrepro": 4152,
      "based": 4153,
      "ĠfÃ©": 4154,
      "ĠLab": 4155,
      "umb": 4156,
      "Ġposs": 4157,
      "importance": 4158,
      "DC": 4159,
      "Ġfive": 4160,
      "Ġcommen": 4161,
      "Ġphase": 4162,
      "Ġnombreux": 4163,
      "Ġdemandes": 4164,
      "09": 4165,
      "temp": 4166,
      "Ġcombat": 4167,
      "aÃ®tre": 4168,
      "Ġresponsibility": 4169,
      "Ã©hic": 4170,
      "ordin": 4171,
      "Ġdiscussion": 4172,
      "Ġstrategy": 4173,
      "Ġpartenaires": 4174,
      "Ġpermanent": 4175,
      "ME": 4176,
      "Ġpercent": 4177,
      "ĠPart": 4178,
      "ĠTrade": 4179,
      "Ġzones": 4180,
      "Ġsolution": 4181,
      "rac": 4182,
      "ĠÃ©tudes": 4183,
      "ĠTreat": 4184,
      "prÃ©": 4185,
      "Ġhead": 4186,
      "ĠWorking": 4187,
      "Ġexpected": 4188,
      "Ġprob": 4189,
      "rid": 4190,
      "ĠMme": 4191,
      "Ġeffect": 4192,
      "Ġincreasing": 4193,
      "Ġcat": 4194,
      "umer": 4195,
      "Ġcaus": 4196,
      "pÃ©rience": 4197,
      "Ġwel": 4198,
      "ĠSci": 4199,
      "ĠtraitÃ©": 4200,
      "ĠChild": 4201,
      "ĠPolicy": 4202,
      "Ġlicence": 4203,
      "lacement": 4204,
      "Ġanalysis": 4205,
      "AF": 4206,
      "eria": 4207,
      "Ġjug": 4208,
      "ĠdÃ©lÃ©gation": 4209,
      "Ġproceed": 4210,
      "Ã¨ve": 4211,
      "ĠAboriginal": 4212,
      "ĠGovern": 4213,
      "Ġdistin": 4214,
      "ellectu": 4215,
      "see": 4216,
      "Ġresponse": 4217,
      "Ġvehic": 4218,
      "Ġsoulign": 4219,
      "Ġsyn": 4220,
      "ocument": 4221,
      "Ġversion": 4222,
      "ĠcapacitÃ©s": 4223,
      "Ġcontexte": 4224,
      "ĠamÃ©liorer": 4225,
      "ĠrÃ©pondre": 4226,
      "ĠÃ©gard": 4227,
      "Ġcell": 4228,
      "urent": 4229,
      "iles": 4230,
      "ruary": 4231,
      "Ġbecome": 4232,
      "ebruary": 4233,
      "ctobre": 4234,
      "autor": 4235,
      "Ġapprou": 4236,
      "Ġdiscussions": 4237,
      "Ã©vrier": 4238,
      "Ġir": 4239,
      "Ġwar": 4240,
      "ĠprÃª": 4241,
      "ensus": 4242,
      "ournal": 4243,
      "voy": 4244,
      "Ġtel": 4245,
      "Ġtog": 4246,
      "ĠprÃ©vention": 4247,
      "Ġbiens": 4248,
      "58": 4249,
      "not": 4250,
      "rehen": 4251,
      "ĠCap": 4252,
      "ĠRÃ©": 4253,
      "Ġsuivants": 4254,
      "ĠintÃ©ress": 4255,
      "Ġinvolved": 4256,
      "Ġlanguage": 4257,
      "xx": 4258,
      "Ġproch": 4259,
      "Ġconfirm": 4260,
      "Ġlorsqu": 4261,
      "31": 4262,
      "Ġlow": 4263,
      "Ġsecteurs": 4264,
      "Ġmilieu": 4265,
      "Ġreporting": 4266,
      "Ġcourse": 4267,
      "Ġtrouver": 4268,
      "pecially": 4269,
      "hÃ©": 4270,
      "poration": 4271,
      "Ġï": 4272,
      "ican": 4273,
      "ĠÃ©tudi": 4274,
      "Ġjust": 4275,
      "Ġpropor": 4276,
      "Ġaliment": 4277,
      "48": 4278,
      "CO": 4279,
      "oins": 4280,
      "Ġminimum": 4281,
      "Ġpublics": 4282,
      "Ġhumaines": 4283,
      "Ġurg": 4284,
      "Ġcentral": 4285,
      "aud": 4286,
      "ĠAssociation": 4287,
      "Ġpromouvoir": 4288,
      "ĠsÃ©rie": 4289,
      "ĠIt": 4290,
      "Ġadministr": 4291,
      "ĠsecrÃ©": 4292,
      "tish": 4293,
      "Ġmarchand": 4294,
      "ĠlÃ©gislation": 4295,
      "rÃªts": 4296,
      "Ġpurpose": 4297,
      "Ġdossi": 4298,
      "Ġtogether": 4299,
      "Ġsup": 4300,
      "Ġalloc": 4301,
      "Ġrespond": 4302,
      "Ġpermettre": 4303,
      "oung": 4304,
      "ueil": 4305,
      "\",": 4306,
      "inc": 4307,
      "Ġfut": 4308,
      "raÃ®": 4309,
      "Ġvul": 4310,
      "ĠvÃ©hic": 4311,
      "Ġdiscuss": 4312,
      "Ġfree": 4313,
      "diction": 4314,
      "Ġproblem": 4315,
      "Ġtowards": 4316,
      "ĠLA": 4317,
      "tenus": 4318,
      "has": 4319,
      "iff": 4320,
      "Ġsais": 4321,
      "Ġunique": 4322,
      "ĠPalestin": 4323,
      "igine": 4324,
      "ĠBel": 4325,
      "ĠfÃ©dÃ©ral": 4326,
      "we": 4327,
      "Ġmunicip": 4328,
      "Ġbureau": 4329,
      "ĠopÃ©ration": 4330,
      "Ġphy": 4331,
      "alyse": 4332,
      "ĠreprÃ©sentant": 4333,
      "Ġplupart": 4334,
      "ydro": 4335,
      "ĠRÃ¨glement": 4336,
      "mun": 4337,
      "Ġoctobre": 4338,
      "Ġuni": 4339,
      "agit": 4340,
      "Ġdernier": 4341,
      "Ġprovinces": 4342,
      "Ġinvestment": 4343,
      "Ġchalleng": 4344,
      "aint": 4345,
      "Ġfaveur": 4346,
      "Ġrelation": 4347,
      "ĠprÃ©occup": 4348,
      "Ġmodern": 4349,
      "Ã©rÃ©": 4350,
      "ives": 4351,
      "Ã©nerg": 4352,
      "issements": 4353,
      "Ġpriority": 4354,
      "activitÃ©": 4355,
      "Ġprise": 4356,
      "Ã©galitÃ©": 4357,
      "Ġcivile": 4358,
      "98": 4359,
      "CN": 4360,
      "wh": 4361,
      "isations": 4362,
      "Ġhold": 4363,
      "Ġacces": 4364,
      "ĠlÃ©gisl": 4365,
      "Ġregarding": 4366,
      "Ġprocedure": 4367,
      "Ġanglais": 4368,
      "Ġsent": 4369,
      "orial": 4370,
      "Ġevaluation": 4371,
      "ics": 4372,
      "Ġwish": 4373,
      "ĠCong": 4374,
      "Ġconven": 4375,
      "Ġpress": 4376,
      "verage": 4377,
      "Ġassist": 4378,
      "ologie": 4379,
      "Ġmaintien": 4380,
      "Ġpratique": 4381,
      "Ġconstitue": 4382,
      "Ġcourt": 4383,
      "lector": 4384,
      "Â».": 4385,
      "Ġachieve": 4386,
      "rehensive": 4387,
      "mi": 4388,
      "ĠThis": 4389,
      "Ġenreg": 4390,
      "Ontario": 4391,
      "ĠdemandÃ©": 4392,
      "Ġentit": 4393,
      "App": 4394,
      "rÃ©s": 4395,
      "Ġplac": 4396,
      "Ġorganisation": 4397,
      "Ã§ais": 4398,
      "Ġ=": 4399,
      "Ġdrug": 4400,
      "Ġsommes": 4401,
      "Ġhau": 4402,
      "ĠTotal": 4403,
      "ĠJap": 4404,
      "Ġmilitary": 4405,
      "ION": 4406,
      "Ġoeuvre": 4407,
      "Ġrou": 4408,
      "Ġorient": 4409,
      "ĠrÃ©gime": 4410,
      "Ġpartners": 4411,
      "ump": 4412,
      "Ġbon": 4413,
      "tine": 4414,
      "ĠcrÃ©er": 4415,
      "Ġmissions": 4416,
      "Ġrelationship": 4417,
      "inÃ©a": 4418,
      "Ġtels": 4419,
      "Ġparc": 4420,
      "ĠSal": 4421,
      "cide": 4422,
      "ĠHigh": 4423,
      "CH": 4424,
      "Ġpower": 4425,
      "Ġmight": 4426,
      "ĠTo": 4427,
      "ĠTHE": 4428,
      "Ġobtenir": 4429,
      "Ġsignal": 4430,
      "Ġrapid": 4431,
      "Ġsituations": 4432,
      "SP": 4433,
      "Ġcitiz": 4434,
      "Ġfall": 4435,
      "titude": 4436,
      "Ġoften": 4437,
      "ĠPR": 4438,
      "active": 4439,
      "employ": 4440,
      "Ġneeded": 4441,
      "Ġsolutions": 4442,
      "Ã©lÃ©c": 4443,
      "exÃ©cution": 4444,
      "44": 4445,
      "fique": 4446,
      "anies": 4447,
      "ĠÃ©p": 4448,
      "Ġacross": 4449,
      "accord": 4450,
      "Ġinstrument": 4451,
      "Ġencourage": 4452,
      "ĠCOM": 4453,
      "Ġreference": 4454,
      "endement": 4455,
      "Ġplanning": 4456,
      "Ġprinciples": 4457,
      "Ġoffice": 4458,
      "Ġauthority": 4459,
      "igration": 4460,
      "Ġrepresentative": 4461,
      "AG": 4462,
      "Comme": 4463,
      "Ġfr": 4464,
      "Ġrendre": 4465,
      "Ġvos": 4466,
      "itions": 4467,
      "Ġemerg": 4468,
      "Ġparce": 4469,
      "Ġperspec": 4470,
      "Ġsociaux": 4471,
      "Ġcommerci": 4472,
      "Ġbenefit": 4473,
      "Ġconnaissances": 4474,
      "mail": 4475,
      "rant": 4476,
      "Ġmaking": 4477,
      "Ġattend": 4478,
      "ĠgrÃ¢ce": 4479,
      "Ġmodifi": 4480,
      "Ġcommand": 4481,
      "veness": 4482,
      "Ġphot": 4483,
      "Ġtelles": 4484,
      "ĠFonds": 4485,
      "exper": 4486,
      "Ġquelques": 4487,
      "Ã©nergie": 4488,
      "Com": 4489,
      "aur": 4490,
      "lam": 4491,
      "ash": 4492,
      "Ã©ric": 4493,
      "ĠFrench": 4494,
      "Ġespecially": 4495,
      "Ġprincipaux": 4496,
      "Ġtaking": 4497,
      "efficacitÃ©": 4498,
      "66": 4499,
      "tences": 4500,
      "gramme": 4501,
      "Ġrecours": 4502,
      "Ġpoursuiv": 4503,
      "ĠAb": 4504,
      "Ġconsac": 4505,
      "Ġstate": 4506,
      "Ġeffects": 4507,
      "Ġtravailleurs": 4508,
      "Ġtenir": 4509,
      "Ġconcurr": 4510,
      "ĠnÃ©cessitÃ©": 4511,
      "Ġactuellement": 4512,
      "Ġteam": 4513,
      "Ġcommunautaire": 4514,
      "Canada": 4515,
      "100": 4516,
      "73": 4517,
      "Ġtest": 4518,
      "ĠAug": 4519,
      "ĠaccÃ¨s": 4520,
      "poses": 4521,
      "ĠKing": 4522,
      "oÃ»t": 4523,
      "aster": 4524,
      "Ġquar": 4525,
      "Ġgender": 4526,
      "ĠNum": 4527,
      "ĠCommissioner": 4528,
      "Ġincludes": 4529,
      "Ġlois": 4530,
      "raq": 4531,
      "ĠFebruary": 4532,
      "Ġprincipe": 4533,
      "45": 4534,
      "Ou": 4535,
      "uns": 4536,
      "Ġouver": 4537,
      "ĠSecretariat": 4538,
      "Ġopinion": 4539,
      "Ġbelow": 4540,
      "ĠpropriÃ©tÃ©": 4541,
      "onde": 4542,
      "Ġmort": 4543,
      "ĠSte": 4544,
      "Ġdimin": 4545,
      "Ġground": 4546,
      "Ġsubstances": 4547,
      "Ġconclusions": 4548,
      "Ġopportunities": 4549,
      "Ġsustainable": 4550,
      "ering": 4551,
      "Ġenvis": 4552,
      "Ġavril": 4553,
      "utri": 4554,
      "ĠindiquÃ©": 4555,
      "Ġfamil": 4556,
      "ĠfinanciÃ¨re": 4557,
      "ĠpossibilitÃ©": 4558,
      "ĠJustice": 4559,
      "IA": 4560,
      "eries": 4561,
      "ana": 4562,
      "omes": 4563,
      "ically": 4564,
      "Ġpractice": 4565,
      "Ġvaleurs": 4566,
      "Ġpositive": 4567,
      "Ġaltern": 4568,
      "ghan": 4569,
      "Ġproposal": 4570,
      "ĠdÃ©bat": 4571,
      "Ġgreater": 4572,
      "Pr": 4573,
      "Ġdavantage": 4574,
      "ĠrÃ©duction": 4575,
      "Ġparticiper": 4576,
      "Ġfonctions": 4577,
      "Ġtouch": 4578,
      "ronti": 4579,
      "askat": 4580,
      "Ġfunction": 4581,
      "exploitation": 4582,
      "itob": 4583,
      "âĢĶ": 4584,
      "Ġpourraient": 4585,
      "ĠJe": 4586,
      "Ġstatut": 4587,
      "Ġrepresentatives": 4588,
      "Ġbehalf": 4589,
      "Ġmarchandises": 4590,
      "¿½": 4591,
      "rol": 4592,
      "actÃ©": 4593,
      "anced": 4594,
      "Ġagreements": 4595,
      "sy": 4596,
      "Ġfew": 4597,
      "ĠDES": 4598,
      "ĠON": 4599,
      "Ġshare": 4600,
      "ĠProc": 4601,
      "Ġmultil": 4602,
      "ĠBritish": 4603,
      "bit": 4604,
      "nel": 4605,
      "quÃ©s": 4606,
      "ĠrÃ©sid": 4607,
      "Ġminist": 4608,
      "valuer": 4609,
      "lands": 4610,
      "Ġcrime": 4611,
      "Ġmatter": 4612,
      "Ġfully": 4613,
      "origine": 4614,
      "ĠChair": 4615,
      "ĠdiffÃ©rentes": 4616,
      "Ġpurposes": 4617,
      "35": 4618,
      "Ġothers": 4619,
      "ĠSouth": 4620,
      "Ġjoint": 4621,
      "Ġimportante": 4622,
      "Ġincor": 4623,
      "Ils": 4624,
      "Ġhigher": 4625,
      "ĠrÃ©ponse": 4626,
      "ĠStrateg": 4627,
      "nels": 4628,
      "ways": 4629,
      "Ġdeme": 4630,
      "ised": 4631,
      "Ġopp": 4632,
      "Ġbonne": 4633,
      "Ġconsolid": 4634,
      "stances": 4635,
      "Ġtransf": 4636,
      "Ġserious": 4637,
      "Ġfacilities": 4638,
      "ĠColomb": 4639,
      "Ã©tat": 4640,
      "erman": 4641,
      "Ġput": 4642,
      "aries": 4643,
      "Ġtravel": 4644,
      "ignes": 4645,
      "Ġmaintenant": 4646,
      "ĠForce": 4647,
      "Ġagreed": 4648,
      "glish": 4649,
      "Ġconflict": 4650,
      "uilding": 4651,
      "Ġphys": 4652,
      "Ġsuivantes": 4653,
      "Ġterritoire": 4654,
      "Ġtexte": 4655,
      "ĠSystem": 4656,
      "face": 4657,
      "ected": 4658,
      "Ġenj": 4659,
      "PC": 4660,
      "put": 4661,
      "Ġpast": 4662,
      "Ġagents": 4663,
      "Ġtermin": 4664,
      "visory": 4665,
      "Ġclient": 4666,
      "Ġvolon": 4667,
      "ĠToronto": 4668,
      "Ġrequested": 4669,
      "ĠprÃ©senter": 4670,
      "Ġidentified": 4671,
      "EMENT": 4672,
      "Ġdays": 4673,
      "ĠCE": 4674,
      "Ġsuit": 4675,
      "ĠOttawa": 4676,
      "Ġhaving": 4677,
      "lications": 4678,
      "Ġcannot": 4679,
      "Ġregister": 4680,
      "ritann": 4681,
      "Ġsuivant": 4682,
      "ĠcompÃ©t": 4683,
      "ĠcompÃ©tences": 4684,
      "Ġjuridique": 4685,
      "ĠAND": 4686,
      "lemen": 4687,
      "Ġwant": 4688,
      "ched": 4689,
      "ĠcomitÃ©": 4690,
      "Ġmanag": 4691,
      "Ġbodies": 4692,
      "ĠnumÃ©ro": 4693,
      "ĠprioritÃ©s": 4694,
      "95": 4695,
      "uration": 4696,
      "Ġnet": 4697,
      "ĠPort": 4698,
      "Ġaider": 4699,
      "Ġopportunity": 4700,
      "governmental": 4701,
      "ĠTreaty": 4702,
      "Ġphysi": 4703,
      "nelle": 4704,
      "tte": 4705,
      "Ġtre": 4706,
      "Ġcentr": 4707,
      "Ġrecru": 4708,
      "Ġtechnologie": 4709,
      "Ġnuclear": 4710,
      "ĠCro": 4711,
      "Ġvir": 4712,
      "onstr": 4713,
      "ĠET": 4714,
      "venue": 4715,
      "Ġnormal": 4716,
      "Ġjudici": 4717,
      "ĠsÃ»": 4718,
      "ĠÃĢ": 4719,
      "Ġhear": 4720,
      "ĠrÃ©seau": 4721,
      "eping": 4722,
      "fficient": 4723,
      "ĠfinanciÃ¨res": 4724,
      "Add": 4725,
      "61": 4726,
      "tiveness": 4727,
      "ĠCAN": 4728,
      "ĠÃ¢": 4729,
      "Ġmobil": 4730,
      "Ġgrant": 4731,
      "Ġobsta": 4732,
      "Ġmess": 4733,
      "Ġlequel": 4734,
      "ĠAction": 4735,
      "anges": 4736,
      "itoba": 4737,
      "Ġissued": 4738,
      "ĠÃ©tabli": 4739,
      "ĠInstitute": 4740,
      "Toutefois": 4741,
      "ken": 4742,
      "Ġstudies": 4743,
      "Ġnatural": 4744,
      "Ġprocesses": 4745,
      "partments": 4746,
      "ĠForum": 4747,
      "ĠsÃ©lection": 4748,
      "Ġcontained": 4749,
      "Ġax": 4750,
      "Ġcred": 4751,
      "avis": 4752,
      "illeurs": 4753,
      "ĠdurÃ©e": 4754,
      "Ġjuris": 4755,
      "inqu": 4756,
      "Ġaujourd": 4757,
      "ĠIII": 4758,
      "onnes": 4759,
      "Ġlimited": 4760,
      "ĠAlberta": 4761,
      "Ġfunds": 4762,
      "Ġreferred": 4763,
      "Ġ<": 4764,
      "annexe": 4765,
      "itarian": 4766,
      "Ġmicro": 4767,
      "uted": 4768,
      "ĠHer": 4769,
      "Ġmeasure": 4770,
      "Ġassociated": 4771,
      "ĠdÃ©but": 4772,
      "Ġaucun": 4773,
      "comm": 4774,
      "fied": 4775,
      "Ġnations": 4776,
      "ĠRel": 4777,
      "Ġconservation": 4778,
      "Inter": 4779,
      "Ġworkers": 4780,
      "Ġwee": 4781,
      "autÃ©s": 4782,
      "Ġvictimes": 4783,
      "Ġtransition": 4784,
      "78": 4785,
      "aw": 4786,
      "Ġpreuve": 4787,
      "Ġcarry": 4788,
      "Ġdiverses": 4789,
      "Ġrendement": 4790,
      "ĠreÃ§u": 4791,
      "UL": 4792,
      "Ġemb": 4793,
      "Ġuntil": 4794,
      "akes": 4795,
      "Ġ1993": 4796,
      "entific": 4797,
      "objec": 4798,
      "ĠcaractÃ©": 4799,
      "Ġadoption": 4800,
      "Ġcontrat": 4801,
      "Ġobservations": 4802,
      "Ġdat": 4803,
      "Ġdel": 4804,
      "Ġlac": 4805,
      "ĠNor": 4806,
      "ĠrÃ©unions": 4807,
      "Ġrenforcement": 4808,
      "dis": 4809,
      "ĠCO": 4810,
      "Ġenviron": 4811,
      "Ġseul": 4812,
      "2008": 4813,
      "Ġinitial": 4814,
      "Ġaccording": 4815,
      "ĠsÃ©ance": 4816,
      "ĠmÃ©dic": 4817,
      "Ġ'": 4818,
      "estern": 4819,
      "Ġrates": 4820,
      "Ġshort": 4821,
      "Ġregulations": 4822,
      "Ġvoie": 4823,
      "Ġcanadiennes": 4824,
      "Ġresponsabil": 4825,
      "intention": 4826,
      "ĠsociÃ©tÃ©s": 4827,
      "Ġpouv": 4828,
      "intÃ©rÃªt": 4829,
      "Ġailleurs": 4830,
      "Ġsing": 4831,
      "Ġthreat": 4832,
      "Ġparents": 4833,
      "ĠdÃ©li": 4834,
      "forcement": 4835,
      "Ġintellectu": 4836,
      "CP": 4837,
      "adoption": 4838,
      "Ġsurv": 4839,
      "ĠrÃ©par": 4840,
      "Ġchac": 4841,
      "ĠprÃ©sentÃ©": 4842,
      "ĠprivÃ©": 4843,
      "--": 4844,
      "IE": 4845,
      "MP": 4846,
      "erson": 4847,
      "ĠdÃ©sign": 4848,
      "Ġchois": 4849,
      "ĠFederal": 4850,
      "Ġinspec": 4851,
      "assurance": 4852,
      "Ġplanification": 4853,
      "ĠÂ».": 4854,
      "All": 4855,
      "Ġstrategic": 4856,
      "46": 4857,
      "Sec": 4858,
      "ela": 4859,
      "Ġplain": 4860,
      "ĠGe": 4861,
      "Ġstatement": 4862,
      "ĠAugust": 4863,
      "TC": 4864,
      "aign": 4865,
      "ined": 4866,
      "let": 4867,
      "Ġreduce": 4868,
      "ĠPan": 4869,
      "Ġcho": 4870,
      "Ġcomprehensive": 4871,
      "Ġprevent": 4872,
      "ocratic": 4873,
      "ĠAmerica": 4874,
      "Lors": 4875,
      "Ġide": 4876,
      "orti": 4877,
      "orie": 4878,
      "oix": 4879,
      "Ġchangement": 4880,
      "Ġlangues": 4881,
      "39": 4882,
      "SS": 4883,
      "orther": 4884,
      "ĠMex": 4885,
      "sieur": 4886,
      "Ġfinanciers": 4887,
      "Ġcontinued": 4888,
      "Afrique": 4889,
      "41": 4890,
      "ING": 4891,
      "Ġstandard": 4892,
      "enfant": 4893,
      "ustral": 4894,
      "Ġcharacter": 4895,
      "Ġsimilar": 4896,
      "nelles": 4897,
      "eness": 4898,
      "inform": 4899,
      "ĠCON": 4900,
      "Ġcond": 4901,
      "Ġhaut": 4902,
      "abs": 4903,
      "Ãªmes": 4904,
      "Ġprepared": 4905,
      "Ġchallenges": 4906,
      "Ġcompens": 4907,
      "Ġconstat": 4908,
      "Ġpubliques": 4909,
      "Ġapproved": 4910,
      "Ġapplications": 4911,
      "ĠQu": 4912,
      "Ġtempor": 4913,
      "ĠQuebec": 4914,
      "dire": 4915,
      "anci": 4916,
      "Ġhim": 4917,
      "Ġterm": 4918,
      "Ġpostes": 4919,
      "avoir": 4920,
      "Ġnombreuses": 4921,
      "vretÃ©": 4922,
      "Ġlimit": 4923,
      "DF": 4924,
      "Ġdecid": 4925,
      "Ġeither": 4926,
      "Ġbl": 4927,
      "ĠTable": 4928,
      "ĠBan": 4929,
      "clos": 4930,
      "ĠAfrican": 4931,
      "ICE": 4932,
      "Ġyoung": 4933,
      "oine": 4934,
      "Ġmanif": 4935,
      "Ġ1992": 4936,
      "................": 4937,
      "38": 4938,
      "ĠSur": 4939,
      "ĠSum": 4940,
      "Ġpropositions": 4941,
      "ĠfÃ©lic": 4942,
      "Ġsuperv": 4943,
      "Ġdone": 4944,
      "Ġeux": 4945,
      "Ġname": 4946,
      "Ġavis": 4947,
      "Ġdise": 4948,
      "Ġsensibil": 4949,
      "ĠrÃ©glementation": 4950,
      "Ġdisponibles": 4951,
      "Ġpursuant": 4952,
      "ez": 4953,
      "Ġannex": 4954,
      "taires": 4955,
      "lier": 4956,
      "ĠBank": 4957,
      "ĠHIV": 4958,
      "Ġdiri": 4959,
      "enseignement": 4960,
      "ĠderniÃ¨re": 4961,
      "Ġbuilding": 4962,
      "Agence": 4963,
      "hait": 4964,
      "ĠPaci": 4965,
      "ĠEC": 4966,
      "ologique": 4967,
      "Ġcoup": 4968,
      "comes": 4969,
      "ĠSecrÃ©tariat": 4970,
      "ĠJohn": 4971,
      "Ġcitizens": 4972,
      "lande": 4973,
      "investi": 4974,
      "ark": 4975,
      "Ġrati": 4976,
      "ĠCF": 4977,
      "ĠÃ©vent": 4978,
      "ĠconfÃ©rence": 4979,
      "Ġestablishment": 4980,
      "ĠstratÃ©gique": 4981,
      "ĠConstitution": 4982,
      "ĠconsÃ©quent": 4983,
      "Ġstrengthen": 4984,
      "Ġordin": 4985,
      "TS": 4986,
      "Ġreste": 4987,
      "aisse": 4988,
      "portation": 4989,
      "Ġ45": 4990,
      "Ġcarried": 4991,
      "orthern": 4992,
      "Ġsouhait": 4993,
      "ologiques": 4994,
      "ĠmÃ©canismes": 4995,
      "fiques": 4996,
      "Ġlight": 4997,
      "ĠCH": 4998,
      "acqu": 4999,
      "ĠÃ©nonc": 5000,
      "ged": 5001,
      "ttes": 5002,
      "Ã©taire": 5003,
      "ĠCri": 5004,
      "ĠSantÃ©": 5005,
      "ĠTR": 5006,
      "ĠWomen": 5007,
      "izing": 5008,
      "Ġrelatifs": 5009,
      "Ġcarb": 5010,
      "Ġsociales": 5011,
      "Ġpresented": 5012,
      "porate": 5013,
      "Ġevent": 5014,
      "ĠfÃ©vrier": 5015,
      "Ġarmes": 5016,
      "Ġlik": 5017,
      "Ġclaire": 5018,
      "Ġfacteurs": 5019,
      "abilities": 5020,
      "Ġdirecteur": 5021,
      "Ġbring": 5022,
      "ĠcritÃ¨res": 5023,
      "ĠmÃ©thodes": 5024,
      "ĠpauvretÃ©": 5025,
      "Ġretra": 5026,
      "ĠprÃ¨s": 5027,
      "Ġadministration": 5028,
      "ĠIns": 5029,
      "Ãªtes": 5030,
      "Ġmanufact": 5031,
      "Ġterres": 5032,
      "ĠespÃ¨": 5033,
      "Ġtelle": 5034,
      "Ġsorte": 5035,
      "ciation": 5036,
      "ĠDem": 5037,
      "Ġcompanies": 5038,
      "Ġproposals": 5039,
      "Ġdirectement": 5040,
      "Ã´tel": 5041,
      "Ġmultip": 5042,
      "ĠfranÃ§ais": 5043,
      "tout": 5044,
      "esti": 5045,
      "Ġdepartment": 5046,
      "eli": 5047,
      "Ġvoir": 5048,
      "ĠgÃ©": 5049,
      "acts": 5050,
      "Ġcoh": 5051,
      "Ġregions": 5052,
      "Ġdetermine": 5053,
      "Ġcitoyens": 5054,
      "crit": 5055,
      "analyse": 5056,
      "Ġearly": 5057,
      "ĠEmploy": 5058,
      "Ġmean": 5059,
      "Ġpermettant": 5060,
      "ĠdÃ©fense": 5061,
      "Ġindividuals": 5062,
      "ĠRapporteur": 5063,
      "Ġdim": 5064,
      "Ġhommes": 5065,
      "ĠSoci": 5066,
      "thing": 5067,
      "Ġexc": 5068,
      "Ġresta": 5069,
      "Ġformer": 5070,
      "Ġinvestig": 5071,
      "Ġlink": 5072,
      "chewan": 5073,
      "Ġportant": 5074,
      "Ġessential": 5075,
      "Ġguidelines": 5076,
      "html": 5077,
      "Ġred": 5078,
      "ĠAD": 5079,
      "verty": 5080,
      "Ã©ral": 5081,
      "Ġapport": 5082,
      "Ġinterven": 5083,
      "Ġcertific": 5084,
      "iversitÃ©": 5085,
      "Ġpoverty": 5086,
      "uerre": 5087,
      "Ġcomplete": 5088,
      "IDS": 5089,
      "Ġcurrently": 5090,
      "Ġmaximum": 5091,
      "ĠÃ©lectronique": 5092,
      "Ġtort": 5093,
      "ands": 5094,
      "ĠEN": 5095,
      "Ã©rences": 5096,
      "Ġcompon": 5097,
      "ĠÃītat": 5098,
      "Ġentitled": 5099,
      "IB": 5100,
      "Ġtoday": 5101,
      "lectronic": 5102,
      "Ġconducted": 5103,
      "ĠsupplÃ©mentaires": 5104,
      "Mon": 5105,
      "rage": 5106,
      "ries": 5107,
      "tag": 5108,
      "Ġbegin": 5109,
      "Ġemphas": 5110,
      "istration": 5111,
      "Ġgener": 5112,
      "ĠmatÃ©riel": 5113,
      "askatchewan": 5114,
      "isms": 5115,
      "roÃ®": 5116,
      "Ġparmi": 5117,
      "ĠMill": 5118,
      "emn": 5119,
      "Ġresid": 5120,
      "dex": 5121,
      "Ġ35": 5122,
      "Ġexpend": 5123,
      "Ġviolations": 5124,
      "Ġsuffis": 5125,
      "Ã©conomie": 5126,
      "ĠpÃªche": 5127,
      "ritannique": 5128,
      "Ġeas": 5129,
      "Ġtop": 5130,
      "Ġhome": 5131,
      "Ġvit": 5132,
      "Ġ48": 5133,
      "ĠliÃ©es": 5134,
      "ĠcaractÃ©ris": 5135,
      "quÃ©e": 5136,
      "Ġlack": 5137,
      "Ġremo": 5138,
      "Ġpoll": 5139,
      "ynam": 5140,
      "naire": 5141,
      "Ġma": 5142,
      "autÃ©": 5143,
      "Ġclin": 5144,
      "ĠMinistry": 5145,
      "ĠrÃ©gional": 5146,
      "Ġconclusion": 5147,
      "ruption": 5148,
      "ications": 5149,
      "ĠCal": 5150,
      "cie": 5151,
      "ĠYork": 5152,
      "Ġcommitment": 5153,
      "Fin": 5154,
      "Ġporte": 5155,
      "ancial": 5156,
      "Ġcru": 5157,
      "itage": 5158,
      "Ġlabour": 5159,
      "Ġsumm": 5160,
      "anda": 5161,
      "Ġfinancier": 5162,
      "ĠvÃ©rification": 5163,
      "ulaire": 5164,
      "Ġcompren": 5165,
      "ĠrÃ©serve": 5166,
      "Ġlangue": 5167,
      "Ġdirectly": 5168,
      "ĠministÃ¨res": 5169,
      "uv": 5170,
      "Ġaverage": 5171,
      "Ġself": 5172,
      "Ġindicated": 5173,
      "ĠTerrit": 5174,
      "ĠprotÃ©ger": 5175,
      "Is": 5176,
      "ĠaÃ©ri": 5177,
      "ĠMac": 5178,
      "ĠdÃ©cid": 5179,
      "ĠDr": 5180,
      "ĠrÃ©serv": 5181,
      "ĠrÃ©gul": 5182,
      "Ġcircum": 5183,
      "Ã©tait": 5184,
      "ĠÃ©levÃ©": 5185,
      "Ġconsultatif": 5186,
      "77": 5187,
      "PR": 5188,
      "Ġpaid": 5189,
      "atures": 5190,
      "ĠÃ©l": 5191,
      "endment": 5192,
      "ĠintÃ©rÃªts": 5193,
      "ĠAnn": 5194,
      "Ġexamen": 5195,
      "Ġcoordin": 5196,
      "ĠÃ©quip": 5197,
      "Ġinternal": 5198,
      "uelles": 5199,
      "titul": 5200,
      "ertain": 5201,
      "itures": 5202,
      "Ġsepar": 5203,
      "tenance": 5204,
      "Ġdurant": 5205,
      "Ġpropre": 5206,
      "Ġrencon": 5207,
      "Ġobjective": 5208,
      "ĠcollectivitÃ©s": 5209,
      "Ã©taires": 5210,
      "IF": 5211,
      "TE": 5212,
      "Ĥ¬": 5213,
      "Ġdecl": 5214,
      "leur": 5215,
      "Ġcontent": 5216,
      "Ġquo": 5217,
      "Ġaudi": 5218,
      "Ġvente": 5219,
      "ids": 5220,
      "ĠBul": 5221,
      "Ġoverall": 5222,
      "Ġthroughout": 5223,
      "Ġapplied": 5224,
      "ĠProtection": 5225,
      "Ġconsistent": 5226,
      "Ġenregistr": 5227,
      "arante": 5228,
      "Ġharmon": 5229,
      "Ġfaible": 5230,
      "ĠÂ´": 5231,
      "elling": 5232,
      "ĠParty": 5233,
      "Ġcoll": 5234,
      "Ġpermettra": 5235,
      "Ġcoordonn": 5236,
      "Ġsubstanti": 5237,
      "Ġfactors": 5238,
      "ospital": 5239,
      "rel": 5240,
      "Ġreduction": 5241,
      "mement": 5242,
      "Ġcode": 5243,
      "Ġimportants": 5244,
      "Ġstudents": 5245,
      "Ġdesigned": 5246,
      "Res": 5247,
      "inst": 5248,
      "Ġadmis": 5249,
      "Ġdipl": 5250,
      "ĠcontrÃ´": 5251,
      "ĠstratÃ©gies": 5252,
      "Ġrelativement": 5253,
      "Ġfreed": 5254,
      "ĠProtocol": 5255,
      "holders": 5256,
      "ĠMembres": 5257,
      "quant": 5258,
      "Ã©rant": 5259,
      "Ġcompany": 5260,
      "issaire": 5261,
      "ĠliÃ©s": 5262,
      "ternal": 5263,
      "ĠManitoba": 5264,
      "1999": 5265,
      "Ġconseil": 5266,
      "ghanistan": 5267,
      "cos": 5268,
      "Ġx": 5269,
      "Ġreli": 5270,
      "Ġquant": 5271,
      "Ġ36": 5272,
      "ĠproposÃ©": 5273,
      "Ġdirectives": 5274,
      "aissance": 5275,
      "Ġidentify": 5276,
      "Ġtravaill": 5277,
      "cr": 5278,
      "vi": 5279,
      "ley": 5280,
      "Ġgaz": 5281,
      "ĠLi": 5282,
      "Ġcontribu": 5283,
      "ĠExecutive": 5284,
      "Ġfaciliter": 5285,
      "Ġmodifications": 5286,
      "Ġmedia": 5287,
      "ĠrÃ©fug": 5288,
      "Ġcycle": 5289,
      "enous": 5290,
      "ico": 5291,
      "Ã¨ge": 5292,
      "tÃ©rieur": 5293,
      "ĠGre": 5294,
      "Ġrefus": 5295,
      "ĠprÃ©voit": 5296,
      "quently": 5297,
      "going": 5298,
      "Ġsubsection": 5299,
      "Ġsuccessful": 5300,
      "ĠDirective": 5301,
      "Ġtot": 5302,
      "tual": 5303,
      "tream": 5304,
      "dequ": 5305,
      "ĠRegulation": 5306,
      "Ġsatisfaction": 5307,
      "Ġaccompl": 5308,
      "ĠRegional": 5309,
      "Ġbody": 5310,
      "Ġrural": 5311,
      "elves": 5312,
      "tability": 5313,
      "ablement": 5314,
      "ĠdÃ©lai": 5315,
      "Ġcalled": 5316,
      "ĠColumb": 5317,
      "ably": 5318,
      "SE": 5319,
      "esting": 5320,
      "Ġdri": 5321,
      "Ã©tude": 5322,
      "ĠEnglish": 5323,
      "Ġpriorities": 5324,
      "Ġdemander": 5325,
      "Ġcomprend": 5326,
      "Ġexpressed": 5327,
      "97": 5328,
      "That": 5329,
      "Ġprovis": 5330,
      "Ġarch": 5331,
      "Ġforms": 5332,
      "Ġapproche": 5333,
      "Ġcontribuer": 5334,
      "Ġlocaux": 5335,
      "Ġ2010": 5336,
      "Ġavantages": 5337,
      "Ġstrategies": 5338,
      "Ġarrangements": 5339,
      "lar": 5340,
      "wick": 5341,
      "ĠMad": 5342,
      "Ġconsensus": 5343,
      "ĠOther": 5344,
      "ĠâĢĺ": 5345,
      "ĠProject": 5346,
      "Ġ90": 5347,
      "Ġstates": 5348,
      "Ġcross": 5349,
      "Ġresponsable": 5350,
      "Ġaddressed": 5351,
      "Ġjuridiques": 5352,
      "Ġdeliver": 5353,
      "Ġpatients": 5354,
      "Ġloss": 5355,
      "Ġcateg": 5356,
      "quÃ©es": 5357,
      "unt": 5358,
      "Ġjoin": 5359,
      "Ġdemonstr": 5360,
      "cident": 5361,
      "Ġutiliser": 5362,
      "Ġbienn": 5363,
      "Ġreceive": 5364,
      "Ġtoutefois": 5365,
      "While": 5366,
      "Ġunderstanding": 5367,
      "itime": 5368,
      "apons": 5369,
      "Ġspecies": 5370,
      "udget": 5371,
      "Ġstated": 5372,
      "Ġvalues": 5373,
      "Ġmodel": 5374,
      "36": 5375,
      "Vous": 5376,
      "mosph": 5377,
      "Ġget": 5378,
      "Ġtraffic": 5379,
      "Ġdiss": 5380,
      "Ġorganes": 5381,
      "ĠVIH": 5382,
      "Ġvisit": 5383,
      "Ġpropres": 5384,
      "Ġcriminal": 5385,
      "Ġvalid": 5386,
      "Ġtrouve": 5387,
      "Ġmandate": 5388,
      "alinÃ©a": 5389,
      "ict": 5390,
      "Ã¨de": 5391,
      "Ġexiste": 5392,
      "Ġplut": 5393,
      "Ġ37": 5394,
      "ĠcommunautÃ©s": 5395,
      "Ġconcerns": 5396,
      "Ġemployee": 5397,
      "Ġfournisse": 5398,
      "Ġentend": 5399,
      "Ġmatters": 5400,
      "Ġbuild": 5401,
      "Ġcherche": 5402,
      "Ġtarget": 5403,
      "Ġappear": 5404,
      "Ġinterp": 5405,
      "Ġrecherches": 5406,
      "aÃ®t": 5407,
      "Ġfonctionnement": 5408,
      "Ġsingle": 5409,
      "ĠColumbia": 5410,
      "Or": 5411,
      "dits": 5412,
      "nement": 5413,
      "uc": 5414,
      "ï¿½": 5415,
      "Ġinnov": 5416,
      "ĠMc": 5417,
      "Ġexchange": 5418,
      "Ġcommis": 5419,
      "Ġliving": 5420,
      "Ġtransfert": 5421,
      "Ġeconomy": 5422,
      "Ġproportion": 5423,
      "AU": 5424,
      "Cons": 5425,
      "IG": 5426,
      "tise": 5427,
      "Ġtook": 5428,
      "ĠrÃ©v": 5429,
      "Ġnotes": 5430,
      "Ġprofessional": 5431,
      "Ġtext": 5432,
      "Ġdelegation": 5433,
      "%)": 5434,
      "vin": 5435,
      "Ã«": 5436,
      "ony": 5437,
      "ĠÃ©tude": 5438,
      "ĠRÃ©s": 5439,
      "lique": 5440,
      "tivity": 5441,
      "Ġsessions": 5442,
      "Ġcaract": 5443,
      "vised": 5444,
      "Ġwhole": 5445,
      "ĠResources": 5446,
      "ĠlibertÃ©": 5447,
      "orm": 5448,
      "Ġconver": 5449,
      "ades": 5450,
      "outes": 5451,
      "Ġ80": 5452,
      "Ġoptions": 5453,
      "Ġaccords": 5454,
      "shop": 5455,
      "eurs": 5456,
      "Ġ?": 5457,
      "Ġtox": 5458,
      "ĠLib": 5459,
      "Ġminim": 5460,
      "Ġmentionn": 5461,
      "ĠentraÃ®": 5462,
      "Ġoffre": 5463,
      "Ġconvient": 5464,
      "Ġevents": 5465,
      "oman": 5466,
      "igenous": 5467,
      "bert": 5468,
      "Ġaround": 5469,
      "Ġstress": 5470,
      "Ġcanadiens": 5471,
      "ranch": 5472,
      "Ġoperational": 5473,
      "ĠprÃ©vues": 5474,
      "Ã©chelle": 5475,
      "ju": 5476,
      "ĠdÃ©t": 5477,
      "ĠrÃ©mun": 5478,
      "Ġcompet": 5479,
      "Ġcompliance": 5480,
      "aps": 5481,
      "ĠsecrÃ©tariat": 5482,
      "lementing": 5483,
      "You": 5484,
      "dre": 5485,
      "Ġfaisant": 5486,
      "Ġresponsables": 5487,
      "amÃ©liorer": 5488,
      "Rapp": 5489,
      "gar": 5490,
      "Ġadequ": 5491,
      "ĠSc": 5492,
      "ĠGerman": 5493,
      "apter": 5494,
      "Ġprevention": 5495,
      "assistance": 5496,
      "ĠmodÃ¨le": 5497,
      "ĠcoÃ»t": 5498,
      "Ġcustom": 5499,
      "90": 5500,
      "uellement": 5501,
      "ĠtÃ¢": 5502,
      "Ġfile": 5503,
      "ĠPat": 5504,
      "ĠBar": 5505,
      "ĠBur": 5506,
      "Ġbasic": 5507,
      "ĠrÃ©alisation": 5508,
      "Ġcollective": 5509,
      "Ġmedical": 5510,
      "ĠSupp": 5511,
      "Ġrac": 5512,
      "Ġdescription": 5513,
      "Ġcome": 5514,
      "Ġforward": 5515,
      "ĠÃ©valuation": 5516,
      "ĠBe": 5517,
      "Ġinterests": 5518,
      "Ġinfrastructure": 5519,
      "ĠDirection": 5520,
      "Ġacquis": 5521,
      "ĠprÃ©sence": 5522,
      "bours": 5523,
      "Ġdepartments": 5524,
      "Ġrule": 5525,
      "Ġviv": 5526,
      "tait": 5527,
      "ĠDU": 5528,
      "Ġdocumentation": 5529,
      "ĠnÃ©gociations": 5530,
      "inks": 5531,
      "areness": 5532,
      "aume": 5533,
      "operation": 5534,
      "Ġcreate": 5535,
      "Ġcircons": 5536,
      "ennes": 5537,
      "Ġaide": 5538,
      "Ġintitul": 5539,
      "ĠAsi": 5540,
      "ĠDans": 5541,
      "Ġsupply": 5542,
      "Ġstake": 5543,
      "Ġhumanitarian": 5544,
      "Ġobligation": 5545,
      "Ġscience": 5546,
      "Ġstructures": 5547,
      "ĠSaint": 5548,
      "auteur": 5549,
      "Ġsurtout": 5550,
      "ANS": 5551,
      "Ġupd": 5552,
      "Ġmoyenne": 5553,
      "istrement": 5554,
      "ĠpossibilitÃ©s": 5555,
      "Ġchapitre": 5556,
      "Ġhours": 5557,
      "ĠrÃ©forme": 5558,
      "iency": 5559,
      "Ġtiers": 5560,
      "Ġoutside": 5561,
      "ĠderniÃ¨res": 5562,
      "ĠchargÃ©": 5563,
      "Ġterrorisme": 5564,
      "Ġregular": 5565,
      "Ġcompeti": 5566,
      "Ġconflit": 5567,
      "AB": 5568,
      "ma": 5569,
      "Ġnord": 5570,
      "ĠIraq": 5571,
      "Ġoutil": 5572,
      "Ġstock": 5573,
      "Ġprinciple": 5574,
      "Ġlikely": 5575,
      "Ġrespective": 5576,
      "ERS": 5577,
      "Ġjustif": 5578,
      "ĠForces": 5579,
      "Ġtrop": 5580,
      "Ġequal": 5581,
      "Ġefficient": 5582,
      "ĠdÃ©taill": 5583,
      "Ġgarantir": 5584,
      "Ġconflits": 5585,
      ",\"": 5586,
      ".-": 5587,
      "hol": 5588,
      "Ġthus": 5589,
      "ĠÃ©ner": 5590,
      "Ġrelatif": 5591,
      "ancing": 5592,
      "Ġcriteria": 5593,
      "ĠmÃ©dias": 5594,
      "ĠplutÃ´t": 5595,
      "37": 5596,
      "Dep": 5597,
      "PI": 5598,
      "QU": 5599,
      "Some": 5600,
      "¬ģ": 5601,
      "Ġinj": 5602,
      "Ġlabor": 5603,
      "Ġvise": 5604,
      "iche": 5605,
      "Ġcontribute": 5606,
      "Ġfonctionnaires": 5607,
      "Ġcompetition": 5608,
      "amÃ©lioration": 5609,
      "entreprise": 5610,
      "Ġconcurrence": 5611,
      "Ġcircumstances": 5612,
      "Selon": 5613,
      "bo": 5614,
      "Ġpan": 5615,
      "Ġflo": 5616,
      "Ġprend": 5617,
      "ĠRE": 5618,
      "ĠcomplÃ¨": 5619,
      "ĠOp": 5620,
      "Ġeffort": 5621,
      "ĠprÃ©sid": 5622,
      "ually": 5623,
      "Ġrenouvel": 5624,
      "ĠprÃ©vu": 5625,
      "ĠDÃ©claration": 5626,
      "trÃ©al": 5627,
      "ĠindÃ©pend": 5628,
      "intÃ©gration": 5629,
      "96": 5630,
      "ĪĴ": 5631,
      "ĠfrÃ©": 5632,
      "Ġgas": 5633,
      "ĠArab": 5634,
      "Ġchoix": 5635,
      "Â»,": 5636,
      "Ġpayment": 5637,
      "ĠdÃ©clarÃ©": 5638,
      "ĠtroisiÃ¨me": 5639,
      "ĠdÃ©finition": 5640,
      "ĠEnvironmental": 5641,
      "Ġindependent": 5642,
      "Ġmechanisms": 5643,
      "According": 5644,
      "jud": 5645,
      "ĠMs": 5646,
      "Ġresource": 5647,
      "aille": 5648,
      "Ġarbit": 5649,
      "Ġqualif": 5650,
      "unswick": 5651,
      "year": 5652,
      "inn": 5653,
      "Ġdescribed": 5654,
      "ĠBer": 5655,
      "ĠOper": 5656,
      "Ġ38": 5657,
      "Ġcapit": 5658,
      "ĠÃ©tablissements": 5659,
      "Ġentreprise": 5660,
      "Ġimmedi": 5661,
      "Ġsubstance": 5662,
      "Ġleadership": 5663,
      "Comp": 5664,
      "Table": 5665,
      "br": 5666,
      "Ġfronti": 5667,
      "Ġconcl": 5668,
      "Ġconclud": 5669,
      "ĠAs": 5670,
      "ĠÃ©tat": 5671,
      "ĠNon": 5672,
      "ĠprioritÃ©": 5673,
      "ĠsuccÃ¨s": 5674,
      "afety": 5675,
      "uite": 5676,
      "ya": 5677,
      "Ġstor": 5678,
      "alk": 5679,
      "Ġratif": 5680,
      "ĠCC": 5681,
      "Ġvoud": 5682,
      "Ġstar": 5683,
      "Ġguide": 5684,
      "âĢĿ.": 5685,
      "ĠStatis": 5686,
      "lation": 5687,
      "ung": 5688,
      "Ġtoo": 5689,
      "Ġconcept": 5690,
      "ĠPRO": 5691,
      "Ġextent": 5692,
      "ĠEd": 5693,
      "ĠBra": 5694,
      "ĠlimitÃ©": 5695,
      "Ã©rable": 5696,
      "Ġfeu": 5697,
      "Ġaliments": 5698,
      "Ġvoyage": 5699,
      "Dec": 5700,
      "Ġwrit": 5701,
      "Ġchamp": 5702,
      "Ġappeal": 5703,
      "Ġsafe": 5704,
      "Ġ1991": 5705,
      "Ġensemble": 5706,
      "Ġgovernments": 5707,
      "PE": 5708,
      "oid": 5709,
      "Ġelements": 5710,
      "atoires": 5711,
      "ication": 5712,
      "aste": 5713,
      "lies": 5714,
      "ĠVer": 5715,
      "Ġsupported": 5716,
      "amental": 5717,
      "Ġcrimin": 5718,
      "Ġscol": 5719,
      "Ġmodification": 5720,
      "ĠfÃ©dÃ©rale": 5721,
      "Ġdelivery": 5722,
      "experts": 5723,
      "Cela": 5724,
      "most": 5725,
      "Ġdepend": 5726,
      "Ġcontenu": 5727,
      "lion": 5728,
      "Ġ32": 5729,
      "ĠWe": 5730,
      "ĠWest": 5731,
      "angu": 5732,
      "enew": 5733,
      "Ġknown": 5734,
      "When": 5735,
      "Ġconsommation": 5736,
      "Ġmaxim": 5737,
      "enz": 5738,
      "Ġait": 5739,
      "aring": 5740,
      "ĠCN": 5741,
      "acte": 5742,
      "ĠEast": 5743,
      "ĠVal": 5744,
      "ĠAnnex": 5745,
      "ĠAdvisory": 5746,
      "ĠColombie": 5747,
      "laration": 5748,
      "Ġprice": 5749,
      "Ġexten": 5750,
      "ĠChina": 5751,
      "Ġclose": 5752,
      "ĠArch": 5753,
      "Ġtenue": 5754,
      "abitat": 5755,
      "dessus": 5756,
      "Ġintended": 5757,
      "Ġguerre": 5758,
      "ĠEducation": 5759,
      "ĠReview": 5760,
      "ground": 5761,
      "Ġpaper": 5762,
      "ICEF": 5763,
      "53": 5764,
      "Further": 5765,
      "Ġ*": 5766,
      "antill": 5767,
      "roit": 5768,
      "ĠSaskatchewan": 5769,
      "Ġge": 5770,
      "opie": 5771,
      "ĠEl": 5772,
      "ĠEtats": 5773,
      "Ġinterne": 5774,
      "Ġcommune": 5775,
      "Ġsamp": 5776,
      "Ġ70": 5777,
      "Ġvisite": 5778,
      "ĠmatiÃ¨res": 5779,
      "trices": 5780,
      "Ġbrev": 5781,
      "Ġajou": 5782,
      "objectif": 5783,
      "cas": 5784,
      "naires": 5785,
      "ticip": 5786,
      "Ġpension": 5787,
      "Ġprog": 5788,
      "Ġformes": 5789,
      "Ġexcell": 5790,
      "ambre": 5791,
      "ored": 5792,
      "Ġconseils": 5793,
      "Ġfigure": 5794,
      "Ġconsommateurs": 5795,
      "sych": 5796,
      "TO": 5797,
      "ming": 5798,
      "Ã¡": 5799,
      "onor": 5800,
      "Ġchim": 5801,
      "Ġ39": 5802,
      "ĠprÃ©sident": 5803,
      "Ġdrog": 5804,
      "Ġannoun": 5805,
      "Cependant": 5806,
      "unications": 5807,
      "roÃ®tre": 5808,
      "ibility": 5809,
      "atta": 5810,
      "Ġenqu": 5811,
      "Ġenable": 5812,
      "ĠdÃ©ch": 5813,
      "Ġappuy": 5814,
      "Ġauxqu": 5815,
      "Ġaura": 5816,
      "hÃ©sion": 5817,
      "ĠdÃ©cidÃ©": 5818,
      "oot": 5819,
      "vÃ©e": 5820,
      "Ġnutri": 5821,
      "ĠÃ©missions": 5822,
      "ueill": 5823,
      "Ġcollection": 5824,
      "illez": 5825,
      "ĠProtocole": 5826,
      "absence": 5827,
      "euro": 5828,
      "uff": 5829,
      "ustries": 5830,
      "umul": 5831,
      "Ġcompleted": 5832,
      "Ġgrandes": 5833,
      "ouvelle": 5834,
      "Ġexercise": 5835,
      "Ġdecided": 5836,
      "Bien": 5837,
      "OU": 5838,
      "One": 5839,
      "ding": 5840,
      "zed": 5841,
      "isent": 5842,
      "Ġhor": 5843,
      "ĠChine": 5844,
      "Ġapproval": 5845,
      "Ġlaws": 5846,
      "ĠimmÃ©di": 5847,
      "Ġindustrial": 5848,
      "ĠsupÃ©rie": 5849,
      "ĠvÃ©hicules": 5850,
      "ĠaoÃ»t": 5851,
      "ĠlÃł": 5852,
      "inte": 5853,
      "orient": 5854,
      "Ġmine": 5855,
      "Ġdonne": 5856,
      "Ġtransports": 5857,
      "ĠamÃ©lior": 5858,
      "Ġul": 5859,
      "Ġdynam": 5860,
      "Ġmach": 5861,
      "ederation": 5862,
      "ĠnÃ©": 5863,
      "Ġrather": 5864,
      "Ġsud": 5865,
      "Ġadress": 5866,
      "Ġmanner": 5867,
      "Ġmarkets": 5868,
      "Ġrecommended": 5869,
      "Ac": 5870,
      "mely": 5871,
      "Ġlat": 5872,
      "incip": 5873,
      "Ġsay": 5874,
      "ĠrÃ©vis": 5875,
      "Ġcomptes": 5876,
      "prÃ©sent": 5877,
      "Ġdix": 5878,
      "criptions": 5879,
      "Ġaurait": 5880,
      "mettre": 5881,
      "Ġmaterials": 5882,
      "ĠSlo": 5883,
      "ĠBi": 5884,
      "ounts": 5885,
      "Ġ44": 5886,
      "Ġdevons": 5887,
      "Ġprotect": 5888,
      "Ġinformed": 5889,
      "Ġsett": 5890,
      "Ġdetermined": 5891,
      "Ġcinqu": 5892,
      "Ġstatistiques": 5893,
      "aul": 5894,
      "enreg": 5895,
      "Ġthough": 5896,
      "Ġwid": 5897,
      "Ã¨que": 5898,
      "gric": 5899,
      "Ã§u": 5900,
      "Ġimplemented": 5901,
      "ĠutilisÃ©": 5902,
      "Ġveiller": 5903,
      "Ġcandidats": 5904,
      "Ġense": 5905,
      "Ġfair": 5906,
      "ĠcrÃ©Ã©": 5907,
      "Ġvolume": 5908,
      "ĠRepresent": 5909,
      "Ġcauses": 5910,
      "Ġintegrated": 5911,
      "ĠrÃ©fugiÃ©s": 5912,
      "62": 5913,
      "gion": 5914,
      "know": 5915,
      "renti": 5916,
      "Ġlignes": 5917,
      "augment": 5918,
      "Ġdiver": 5919,
      "cepti": 5920,
      "affirm": 5921,
      "ĠÃ©crit": 5922,
      "Ġcomprendre": 5923,
      "Ġassign": 5924,
      "duct": 5925,
      "Ġimplementing": 5926,
      "entrÃ©e": 5927,
      "ancoph": 5928,
      "Ġlocales": 5929,
      "Ġensuring": 5930,
      "Ġremains": 5931,
      "Ġguarante": 5932,
      "ĠDeclaration": 5933,
      "Ġgoals": 5934,
      "urgence": 5935,
      "Ġbelieve": 5936,
      "investissement": 5937,
      "DÃ©": 5938,
      "Ġdated": 5939,
      "quoi": 5940,
      "Ġlaun": 5941,
      "Ġvision": 5942,
      "partement": 5943,
      "Ġ500": 5944,
      "Ġoffices": 5945,
      "Ġinstitution": 5946,
      "Ġanalyse": 5947,
      "AmÃ©rique": 5948,
      "Ġundertaken": 5949,
      "ĠcatÃ©gorie": 5950,
      "Ġcentrale": 5951,
      "eaux": 5952,
      "Ġdeath": 5953,
      "Ġflow": 5954,
      "Ġmass": 5955,
      "Ġsurface": 5956,
      "Ġjudg": 5957,
      "Ġadul": 5958,
      "Ġlibre": 5959,
      "Ġobjectif": 5960,
      "Ġfollows": 5961,
      "lantic": 5962,
      "Ġspace": 5963,
      "Ġchef": 5964,
      "rimoine": 5965,
      "Ġmilitaire": 5966,
      "Ġawareness": 5967,
      "Ġcommitted": 5968,
      "Ġreasons": 5969,
      "Ġclimate": 5970,
      "Ġbalance": 5971,
      "ĠresponsabilitÃ©s": 5972,
      "cus": 5973,
      "ev": 5974,
      "ouv": 5975,
      "expÃ©rience": 5976,
      "Ġterrain": 5977,
      "lectric": 5978,
      "Ã¢ti": 5979,
      "Ġgouvernementales": 5980,
      "Ġdebate": 5981,
      "iÃ©e": 5982,
      "Ġhotel": 5983,
      "chÃ©": 5984,
      "Ġact": 5985,
      "lois": 5986,
      "Ġsectors": 5987,
      "Ġamb": 5988,
      "Ġprimary": 5989,
      "Ġinstallations": 5990,
      "But": 5991,
      "lease": 5992,
      "Ġrejet": 5993,
      "Ġdispose": 5994,
      "Ġsubsi": 5995,
      "Ġactuelle": 5996,
      "Ġclearly": 5997,
      "Ġrempl": 5998,
      "ĠmÃ©canisme": 5999,
      "Ġmethods": 6000,
      "ĠministÃ©ri": 6001,
      "ĠRoyaume": 6002,
      "ĠCANAD": 6003,
      "ĠespÃ¨ces": 6004,
      "More": 6005,
      "gÃ©s": 6006,
      "Ġsan": 6007,
      "ĠÃ©labor": 6008,
      "Ġalong": 6009,
      "ureaux": 6010,
      "Ġyet": 6011,
      "Ġsoumis": 6012,
      "Ġminutes": 6013,
      "Ġrefuge": 6014,
      "Ġviolation": 6015,
      "Ġcreation": 6016,
      "Ġamendments": 6017,
      "Ġmilitaires": 6018,
      "ĠnuclÃ©aires": 6019,
      "ery": 6020,
      "ĠÃ©tro": 6021,
      "stÃ¨me": 6022,
      "troduction": 6023,
      "Ġpropose": 6024,
      "Ġlocated": 6025,
      "tructions": 6026,
      "Ġnorm": 6027,
      "Ġregulatory": 6028,
      "ĠâĢ¨": 6029,
      "Ġville": 6030,
      "Ã¨tres": 6031,
      "Ã¢ge": 6032,
      "Ġfavour": 6033,
      "Ġsimple": 6034,
      "ĠprÃ©paration": 6035,
      "ĠCharter": 6036,
      "65": 6037,
      "ĠCentral": 6038,
      "ĠSen": 6039,
      "ĠAut": 6040,
      "ired": 6041,
      "Ġsufficient": 6042,
      "ĠBusiness": 6043,
      "Ġprotoc": 6044,
      "ĠrÃ©gionaux": 6045,
      "Ġassociations": 6046,
      "effec": 6047,
      "PA": 6048,
      "vous": 6049,
      "Ġflex": 6050,
      "âĢľ": 6051,
      "ĠÃ©valu": 6052,
      "Institu": 6053,
      "ĠdÃ©mocratique": 6054,
      "Ġclairement": 6055,
      "Ġtorture": 6056,
      "TER": 6057,
      "td": 6058,
      "idd": 6059,
      "ĠamÃ©ric": 6060,
      "Ġapproxim": 6061,
      "Ġparticipate": 6062,
      "Ġcrimes": 6063,
      "ĠPeop": 6064,
      "ouveau": 6065,
      "54": 6066,
      "Certain": 6067,
      "New": 6068,
      "RÃ©": 6069,
      "wise": 6070,
      "erce": 6071,
      "ros": 6072,
      "Ġreti": 6073,
      "usse": 6074,
      "ĠLake": 6075,
      "Ġjam": 6076,
      "Ġlanguages": 6077,
      "Ġengagements": 6078,
      "ĠMeeting": 6079,
      "Ġrestrictions": 6080,
      "Ġconjoin": 6081,
      "ukon": 6082,
      "OUR": 6083,
      "ae": 6084,
      "Ġprovenant": 6085,
      "Ġconsent": 6086,
      "Ġrecognized": 6087,
      "ĠKingdom": 6088,
      "Ġfamilies": 6089,
      "ging": 6090,
      "mÃ©di": 6091,
      "wer": 6092,
      "Ġtent": 6093,
      "Ġsuc": 6094,
      "Ġalleg": 6095,
      "Ġdistric": 6096,
      "Ġliens": 6097,
      "Ġpersonnels": 6098,
      "crimin": 6099,
      "Ġraisons": 6100,
      "Ġtableau": 6101,
      "Ġnegotiations": 6102,
      "Ġpleinement": 6103,
      "rÃ©e": 6104,
      "Ġpack": 6105,
      "icial": 6106,
      "Ġhar": 6107,
      "essment": 6108,
      "iving": 6109,
      "Ġ34": 6110,
      "tables": 6111,
      "Ġcritical": 6112,
      "Ġsciences": 6113,
      "Ġsteps": 6114,
      "ĠcaractÃ¨re": 6115,
      "613": 6116,
      "91": 6117,
      "ring": 6118,
      "Ġdoc": 6119,
      "union": 6120,
      "mpt": 6121,
      "ĠEUR": 6122,
      "ĠcomplÃ©ment": 6123,
      "ĠFish": 6124,
      "ĠProf": 6125,
      "Ġrequires": 6126,
      "rought": 6127,
      "Ġrembours": 6128,
      "ĠgÃ©nÃ©ralement": 6129,
      "ĠAll": 6130,
      "âĢĿ,": 6131,
      "lobal": 6132,
      "Ġpurch": 6133,
      "Ġlegisl": 6134,
      "Ġrevenus": 6135,
      "Ġbillion": 6136,
      "ĠconsÃ©quences": 6137,
      "Ġmaladies": 6138,
      "overy": 6139,
      "ware": 6140,
      "Â¨": 6141,
      "Ġsembl": 6142,
      "Ġfarm": 6143,
      "Ġmag": 6144,
      "Ġexceed": 6145,
      "treet": 6146,
      "ĠrÃ©per": 6147,
      "Ġjournal": 6148,
      "Ġfaits": 6149,
      "ĠprÃ©sentation": 6150,
      "Ġlocation": 6151,
      "Ġconstituent": 6152,
      "Ġpouvez": 6153,
      "Ġsuscepti": 6154,
      "ĠÃ©tablir": 6155,
      "Ġpaiement": 6156,
      "ĠmajoritÃ©": 6157,
      "Ġlesquels": 6158,
      "Mais": 6159,
      "imes": 6160,
      "enc": 6161,
      "Ġpositions": 6162,
      "ssements": 6163,
      "ĠrÃ©gionales": 6164,
      "Ġcreated": 6165,
      "Ġsurvey": 6166,
      "ĠspÃ©cifiques": 6167,
      "Ġdisponible": 6168,
      "Ġdefined": 6169,
      "Ġpartenariat": 6170,
      "Ġprovisoire": 6171,
      "34": 6172,
      "dor": 6173,
      "ĠSafety": 6174,
      "Ġpermit": 6175,
      "198": 6176,
      "ĠcrÃ©dit": 6177,
      "Ġscientific": 6178,
      "ĠMontrÃ©al": 6179,
      "ĠmÃ©dec": 6180,
      "ĠAmerican": 6181,
      "Ġlesquelles": 6182,
      "ĠBanque": 6183,
      "GR": 6184,
      "UM": 6185,
      "Ã©th": 6186,
      "onses": 6187,
      "Ġregistration": 6188,
      "Ġtimes": 6189,
      "Ġrequests": 6190,
      "Uni": 6191,
      "Ġoperation": 6192,
      "Ġpeoples": 6193,
      "ĠdÃ©mon": 6194,
      "Ġteach": 6195,
      "dÃ©cembre": 6196,
      "bation": 6197,
      "enquÃªte": 6198,
      "Ġevalu": 6199,
      "Ġfif": 6200,
      "Ġways": 6201,
      "Ġparts": 6202,
      "igible": 6203,
      "ssage": 6204,
      "keeping": 6205,
      "ĠdÃ©crit": 6206,
      "ĠutilisÃ©s": 6207,
      "Ġprison": 6208,
      "Ġhandic": 6209,
      "Ġphysical": 6210,
      "Ġenseign": 6211,
      "Britannique": 6212,
      "Ġ00": 6213,
      "isp": 6214,
      "Ġacts": 6215,
      "Ġwhose": 6216,
      "istence": 6217,
      "formes": 6218,
      "iennent": 6219,
      "Ġstage": 6220,
      "Ġfundamental": 6221,
      "Ġoccur": 6222,
      "IPO": 6223,
      "Ġenhance": 6224,
      "EX": 6225,
      "son": 6226,
      "uts": 6227,
      "ising": 6228,
      "Ġdestruction": 6229,
      "ĠGen": 6230,
      "Ġ42": 6231,
      "Ġitself": 6232,
      "Ġspecified": 6233,
      "ancouver": 6234,
      "Ġgenerally": 6235,
      "ĠAuthor": 6236,
      "nÃ©": 6237,
      "pir": 6238,
      "Ã³": 6239,
      "tier": 6240,
      "Ġelectronic": 6241,
      "Ġchiff": 6242,
      "Ġalways": 6243,
      "Ġmarque": 6244,
      "Ġconfi": 6245,
      "Ġimportantes": 6246,
      "Ġexperien": 6247,
      "Ġmajority": 6248,
      "Ġexaminer": 6249,
      "âĢ¦âĢ¦âĢ¦âĢ¦": 6250,
      "ĠPremiÃ¨res": 6251,
      "Other": 6252,
      "Ġpied": 6253,
      "Ġpsych": 6254,
      "reas": 6255,
      "istic": 6256,
      "Ġfru": 6257,
      "Ġcomments": 6258,
      "Ġassur": 6259,
      "Ġregulation": 6260,
      "Ġtitul": 6261,
      "Ġcollabor": 6262,
      "ducing": 6263,
      "ĠreprÃ©sente": 6264,
      "Ġsolid": 6265,
      "Ġscope": 6266,
      "Ġraisonn": 6267,
      "Ġfavoriser": 6268,
      "Ġobstacles": 6269,
      "ipp": 6270,
      "Ġthems": 6271,
      "Ġprohib": 6272,
      "Ġforum": 6273,
      "igence": 6274,
      "Ġsuper": 6275,
      "ommet": 6276,
      "akistan": 6277,
      "Ġ55": 6278,
      "What": 6279,
      "Ġpouvoirs": 6280,
      "Ã©tablir": 6281,
      "Ġlettre": 6282,
      "Ġmaladie": 6283,
      "Ġlearning": 6284,
      "Ġstakeholders": 6285,
      "Ġwritten": 6286,
      "rentissage": 6287,
      "Ġthemselves": 6288,
      "32": 6289,
      "comp": 6290,
      "ÃŃ": 6291,
      "ressive": 6292,
      "Ġ47": 6293,
      "Ġ57": 6294,
      "Ã©quipe": 6295,
      "Ġengagement": 6296,
      "ĠdÃ©mar": 6297,
      "ĠbÃ©nÃ©fici": 6298,
      "Ġdanger": 6299,
      "CS": 6300,
      "building": 6301,
      "Ġavez": 6302,
      "Ġinten": 6303,
      "Ġbat": 6304,
      "Ġblo": 6305,
      "Ġasked": 6306,
      "lim": 6307,
      "Ġformal": 6308,
      "Ã©dÃ©ration": 6309,
      "Ġannuel": 6310,
      "Ġroad": 6311,
      "heure": 6312,
      "Ġterritorial": 6313,
      "ĠRussie": 6314,
      "Ġfabrication": 6315,
      "Ouest": 6316,
      "no": 6317,
      "ecture": 6318,
      "Ġgens": 6319,
      "Ġsuis": 6320,
      "Ġappoint": 6321,
      "clusion": 6322,
      "Ġcomplet": 6323,
      "Although": 6324,
      "Ġsexes": 6325,
      "Ġillic": 6326,
      "Commission": 6327,
      "Ġscientifiques": 6328,
      "Qu": 6329,
      "Ġdam": 6330,
      "ĠdÃ¨s": 6331,
      "ĠpiÃ¨": 6332,
      "eler": 6333,
      "ador": 6334,
      "tact": 6335,
      "Ġsecretariat": 6336,
      "Ġsubse": 6337,
      "anctions": 6338,
      "Ġpoiss": 6339,
      "Ġfamilles": 6340,
      "Ġpromoting": 6341,
      "Ġcouver": 6342,
      "Ġnavig": 6343,
      "DA": 6344,
      "Est": 6345,
      "avenir": 6346,
      "ij": 6347,
      "Ġden": 6348,
      "Ġanci": 6349,
      "Ġconnex": 6350,
      "riÃ¨me": 6351,
      "ettre": 6352,
      "Ã©rÃ©s": 6353,
      "ĠFood": 6354,
      "Ġfais": 6355,
      "ĠDef": 6356,
      "Ã©limination": 6357,
      "ĠpassÃ©": 6358,
      "ĠexaminÃ©": 6359,
      "Ġhistory": 6360,
      "ĠCongo": 6361,
      "quar": 6362,
      "Ġbureaux": 6363,
      "Ġtools": 6364,
      "eck": 6365,
      "ustain": 6366,
      "ĠLE": 6367,
      "amment": 6368,
      "Ġpoly": 6369,
      "Ġdisposi": 6370,
      "Ġmaintenance": 6371,
      "ĠCommunautÃ©": 6372,
      "Ġprofessionnels": 6373,
      "ĠmÃ©thode": 6374,
      "Ġpeuples": 6375,
      "Ġfacilitate": 6376,
      "umption": 6377,
      "ĠNumber": 6378,
      "Ã«l": 6379,
      "ĠPE": 6380,
      "Ġexcep": 6381,
      "Ġexception": 6382,
      "ĠEuro": 6383,
      "Ġweapons": 6384,
      "rief": 6385,
      "Ġremar": 6386,
      "ĠspÃ©ciale": 6387,
      "Ġremplac": 6388,
      "Ġmeilleure": 6389,
      "Ġtraditional": 6390,
      "Ġprestation": 6391,
      "Ġmanifest": 6392,
      "Ġpollution": 6393,
      "intes": 6394,
      "Ġeduc": 6395,
      "âĢĳ": 6396,
      "Ġselection": 6397,
      "keting": 6398,
      "Ġaffect": 6399,
      "examiner": 6400,
      "Ġviews": 6401,
      "Ġcommerciales": 6402,
      "Ġservir": 6403,
      "Ġlook": 6404,
      "Ġletter": 6405,
      "ĠexÃ©cu": 6406,
      "Ġlittle": 6407,
      "Ġenjoy": 6408,
      "Ġjamais": 6409,
      "AIDS": 6410,
      "lav": 6411,
      "Ġtribunal": 6412,
      "armement": 6413,
      "Ġenforcement": 6414,
      "Ġparam": 6415,
      "ĠRiver": 6416,
      "ĠBudget": 6417,
      "Ġcommittee": 6418,
      "Ġformat": 6419,
      "Ġstation": 6420,
      "mobil": 6421,
      "Ġkm": 6422,
      "Ġrespecter": 6423,
      "Ġachieved": 6424,
      "ĠIndustry": 6425,
      "Ġaffected": 6426,
      "temps": 6427,
      "Ġregistered": 6428,
      "Ġther": 6429,
      "Ġgl": 6430,
      "Ġconsci": 6431,
      "Ġprepar": 6432,
      "Ġcounter": 6433,
      "Ġseraient": 6434,
      "Ġ01": 6435,
      "Ġyouth": 6436,
      "Ġapplicant": 6437,
      "Ġcandidates": 6438,
      "Ġrapide": 6439,
      "ĠPeace": 6440,
      "Ġcredit": 6441,
      "51": 6442,
      "DU": 6443,
      "Ġcad": 6444,
      "Ġbord": 6445,
      "Ġvacc": 6446,
      "Ġresolutions": 6447,
      "Ġclari": 6448,
      "Ġpublications": 6449,
      "Ġdecre": 6450,
      "armament": 6451,
      "ĠYukon": 6452,
      "ĠrÃ¨glements": 6453,
      "Ġporter": 6454,
      "Ġprestations": 6455,
      "Sub": 6456,
      "Since": 6457,
      "enge": 6458,
      "Ġdeg": 6459,
      "Ġeaux": 6460,
      "Ġconference": 6461,
      "sif": 6462,
      "Ġvia": 6463,
      "abin": 6464,
      "Ġpermettent": 6465,
      "ĠrÃ©aliser": 6466,
      "Ġchacun": 6467,
      "more": 6468,
      "Ġlater": 6469,
      "ĠpÃ©": 6470,
      "Ġsemble": 6471,
      "lephone": 6472,
      "ĠantÃ©rie": 6473,
      "riel": 6474,
      "adresse": 6475,
      "ĠRÃ©g": 6476,
      "Ġoriginal": 6477,
      "umÃ©": 6478,
      "ĠFinancial": 6479,
      "Ġskills": 6480,
      "oblig": 6481,
      "ĠvÃ©r": 6482,
      "Ġappre": 6483,
      "ĠUne": 6484,
      "Ġdiffusion": 6485,
      "ĠdÃ©clarations": 6486,
      "programme": 6487,
      "ĠCompany": 6488,
      "Ġdefinition": 6489,
      "Ġcopy": 6490,
      "closure": 6491,
      "During": 6492,
      "doc": 6493,
      "onie": 6494,
      "ĠdÃ»": 6495,
      "edu": 6496,
      "right": 6497,
      "ĠÃ©valuer": 6498,
      "ĠrÃ©d": 6499,
      "ommunications": 6500,
      "Ġpublished": 6501,
      "Ġworks": 6502,
      "key": 6503,
      "Ġfinancing": 6504,
      "intÃ©rieur": 6505,
      "________________________________": 6506,
      "Ġclaims": 6507,
      "Ġitems": 6508,
      "Ġclassification": 6509,
      "Ġproceedings": 6510,
      "wide": 6511,
      "Ġability": 6512,
      "Ġturn": 6513,
      "Ġthink": 6514,
      "ara": 6515,
      "ardi": 6516,
      "Ġflu": 6517,
      "atell": 6518,
      "usement": 6519,
      "Ġhydro": 6520,
      "Ã¨ce": 6521,
      "Ġboard": 6522,
      "Ġensuite": 6523,
      "ĠAfghanistan": 6524,
      "ĠGuide": 6525,
      "Ġperspective": 6526,
      "Ġrun": 6527,
      "Ġrenew": 6528,
      "Ġremer": 6529,
      "Ġva": 6530,
      "prit": 6531,
      "Ġ43": 6532,
      "Ġparticuliers": 6533,
      "Ġparagraphes": 6534,
      "alys": 6535,
      "Ġdirectrices": 6536,
      "impact": 6537,
      "ĠHead": 6538,
      "Ġafric": 6539,
      "Ġtaxes": 6540,
      "Ġadministratives": 6541,
      "Ġcovered": 6542,
      "Ġtravailler": 6543,
      "Ġdossier": 6544,
      "Ġpoursuivre": 6545,
      "MA": 6546,
      "Ġ)": 6547,
      "istics": 6548,
      "Ġfaud": 6549,
      "Ġbul": 6550,
      "Ã¨les": 6551,
      "ĠBl": 6552,
      "ĠFra": 6553,
      "ĠFac": 6554,
      "Ġseule": 6555,
      "Ġserve": 6556,
      "llem": 6557,
      "Ġsuivre": 6558,
      "ĠconformitÃ©": 6559,
      "Ġjuge": 6560,
      "Ġgrands": 6561,
      "mark": 6562,
      "Ġfiscal": 6563,
      "lectoral": 6564,
      "Ġweek": 6565,
      "mise": 6566,
      "rary": 6567,
      "Ġinqu": 6568,
      "letin": 6569,
      "Ġunit": 6570,
      "ĠAud": 6571,
      "ĠEqu": 6572,
      "Ġcompared": 6573,
      "Ġjob": 6574,
      "Ġmove": 6575,
      "anger": 6576,
      "iennes": 6577,
      "risis": 6578,
      "Ġnaturelles": 6579,
      "Ġdifficile": 6580,
      "Ġofficials": 6581,
      "Ġrapidement": 6582,
      "Ġhandicap": 6583,
      "64": 6584,
      "ĠtÃ©lÃ©c": 6585,
      "iction": 6586,
      "Ġrein": 6587,
      "Ġleave": 6588,
      "Ġaudit": 6589,
      "ĠPers": 6590,
      "Ġongoing": 6591,
      "ĠMor": 6592,
      "ĠRapport": 6593,
      "ĠrÃ©munÃ©ration": 6594,
      "By": 6595,
      "rite": 6596,
      "Ġlum": 6597,
      "Ġlanc": 6598,
      "ĠCS": 6599,
      "osov": 6600,
      "Ġonce": 6601,
      "blio": 6602,
      "Ġexternal": 6603,
      "ĠIV": 6604,
      "izes": 6605,
      "Ġweb": 6606,
      "Ġwebs": 6607,
      "Ġhumanitaire": 6608,
      "ĠMonsieur": 6609,
      "Ġenvironnementale": 6610,
      "Ġvictims": 6611,
      "Ġmechanism": 6612,
      "ĠcompÃ©tence": 6613,
      "68": 6614,
      "Se": 6615,
      "Ã©trang": 6616,
      "ancer": 6617,
      "Ġmises": 6618,
      "Ġhouse": 6619,
      "ĠLim": 6620,
      "ĠLtd": 6621,
      "ĠrÃ©seaux": 6622,
      "Ġstrengthening": 6623,
      "ĠIndian": 6624,
      "ivalent": 6625,
      "ĠJapan": 6626,
      "FC": 6627,
      "ionn": 6628,
      "Ġsport": 6629,
      "att": 6630,
      "atric": 6631,
      "inguis": 6632,
      "vey": 6633,
      "ĠPAR": 6634,
      "Ġisol": 6635,
      "Ġactes": 6636,
      "atively": 6637,
      "ĠInf": 6638,
      "illed": 6639,
      "Ġconfidenti": 6640,
      "ĠMinistre": 6641,
      "Ġentire": 6642,
      "Ġessentiel": 6643,
      "Ġresponsibilities": 6644,
      "Ġintervenants": 6645,
      "Ġfreedom": 6646,
      "den": 6647,
      "gÃ©es": 6648,
      "Ġ]": 6649,
      "attention": 6650,
      "Ġdess": 6651,
      "ract": 6652,
      "Ġpourquoi": 6653,
      "illage": 6654,
      "Ġneg": 6655,
      "aise": 6656,
      "ĠHouse": 6657,
      "Ġinstitutionn": 6658,
      "Ġsalle": 6659,
      "Ġdouble": 6660,
      "install": 6661,
      "enregistrement": 6662,
      "Dire": 6663,
      "Imp": 6664,
      "Ottawa": 6665,
      "âĤ¬": 6666,
      "Ġbro": 6667,
      "cier": 6668,
      "ĠEs": 6669,
      "visions": 6670,
      "Ġatteindre": 6671,
      "Ġconnaissance": 6672,
      "ĠsupÃ©rieur": 6673,
      "Ġjudiciaire": 6674,
      "gouvernement": 6675,
      "long": 6676,
      "anie": 6677,
      "Ġmix": 6678,
      "raine": 6679,
      "Ġquand": 6680,
      "igure": 6681,
      "ĠNetwork": 6682,
      "aria": 6683,
      "ferences": 6684,
      "oncÃ©": 6685,
      "ĠIsland": 6686,
      "ĠdÃ©fis": 6687,
      "Ġcommitments": 6688,
      "Ġscientifique": 6689,
      "DO": 6690,
      "Ġamp": 6691,
      "eless": 6692,
      "ĠÃ©lÃ©ment": 6693,
      "ĠMus": 6694,
      "Ġextre": 6695,
      "ĠChief": 6696,
      "Ġindire": 6697,
      "ĠactivitÃ©": 6698,
      "ÃīS": 6699,
      "ĠintÃ©rieur": 6700,
      "ĠpÃ©riodi": 6701,
      "icaments": 6702,
      "Note": 6703,
      "cluding": 6704,
      "prÃ©tation": 6705,
      "ĠStrategy": 6706,
      "75": 6707,
      "Ġlower": 6708,
      "Ġbrought": 6709,
      "Ġhope": 6710,
      "ĠMes": 6711,
      "ĠForeign": 6712,
      "utÃ©s": 6713,
      "ney": 6714,
      "Ġdiscip": 6715,
      "tenue": 6716,
      "Ã¨rement": 6717,
      "Ġtransmission": 6718,
      "Ġprofit": 6719,
      "Ġpoor": 6720,
      "Ġadded": 6721,
      "Ġequality": 6722,
      "Ġdraw": 6723,
      "Ġimmigr": 6724,
      "ĠdifficultÃ©s": 6725,
      "Ġincorpor": 6726,
      "Depuis": 6727,
      "70": 6728,
      "GO": 6729,
      "ault": 6730,
      "lines": 6731,
      "Â´": 6732,
      "rop": 6733,
      "Ġwords": 6734,
      "Ġenvoy": 6735,
      "Ġvend": 6736,
      "ocks": 6737,
      "Ġshown": 6738,
      "Ġliqu": 6739,
      "ott": 6740,
      "useum": 6741,
      "ife": 6742,
      "Ġsuivante": 6743,
      "Ġterrorism": 6744,
      "Ġaugmentation": 6745,
      "ĠDescription": 6746,
      "ĠRussian": 6747,
      "42": 6748,
      "cont": 6749,
      "vest": 6750,
      "Ġici": 6751,
      "Ġcult": 6752,
      "Ġsti": 6753,
      "Ġsanctions": 6754,
      "aliment": 6755,
      "ares": 6756,
      "Ã¨te": 6757,
      "ivil": 6758,
      "Ġavoid": 6759,
      "Ġ58": 6760,
      "Ġsouha": 6761,
      "Ġestime": 6762,
      "Ġexprim": 6763,
      "Ġrepres": 6764,
      "Ġstatements": 6765,
      "Ġrisks": 6766,
      "Ã©quip": 6767,
      "Ġactual": 6768,
      "place": 6769,
      "iii": 6770,
      "Ġintegration": 6771,
      "Ġmigrants": 6772,
      "ĠAtlantic": 6773,
      "Ġcrise": 6774,
      "Sur": 6775,
      "mÃªme": 6776,
      "oo": 6777,
      "pon": 6778,
      "ÃĪ": 6779,
      "onal": 6780,
      "Ġlinks": 6781,
      "ĠNe": 6782,
      "apprentissage": 6783,
      "2009": 6784,
      "ĠParis": 6785,
      "Ġprotec": 6786,
      "ĠForm": 6787,
      "ĠChildren": 6788,
      "Ġadequate": 6789,
      "llemagne": 6790,
      "BC": 6791,
      "Ph": 6792,
      "ibilitÃ©": 6793,
      "undi": 6794,
      "cemment": 6795,
      "ending": 6796,
      "ĠBos": 6797,
      "Ġtrain": 6798,
      "Ġvoudrais": 6799,
      "fil": 6800,
      "ham": 6801,
      "ert": 6802,
      "Ġpens": 6803,
      "quences": 6804,
      "Ġmakes": 6805,
      "Ġinh": 6806,
      "Ġroute": 6807,
      "ĠAU": 6808,
      "Ġmode": 6809,
      "Ġavanc": 6810,
      "Ġinterventions": 6811,
      "romo": 6812,
      "Ġmoney": 6813,
      "crire": 6814,
      "Ġcontinues": 6815,
      "sibilitÃ©": 6816,
      "Ġefficaces": 6817,
      "ĠDecision": 6818,
      "ĠdÃ©lÃ©gations": 6819,
      "Ġurban": 6820,
      "ĠGovernments": 6821,
      "ĠBelg": 6822,
      "Ainsi": 6823,
      "Ġaqu": 6824,
      "Ġtab": 6825,
      "quet": 6826,
      "ĠCe": 6827,
      "ousing": 6828,
      "Ġcomposition": 6829,
      "Ġfaci": 6830,
      "ĠrÃ©solutions": 6831,
      "Ġworkshop": 6832,
      "Ġaimed": 6833,
      "Ġvehicle": 6834,
      "Ġenvisag": 6835,
      "Ġcirconst": 6836,
      "St": 6837,
      "Tra": 6838,
      "alement": 6839,
      "Ġmas": 6840,
      "Ġwhy": 6841,
      "alls": 6842,
      "ĠprÃ©cis": 6843,
      "Ġimproved": 6844,
      "ĠportÃ©e": 6845,
      "untary": 6846,
      "Our": 6847,
      "Pl": 6848,
      "urrent": 6849,
      "Ġhom": 6850,
      "Ġextr": 6851,
      "Ġfaite": 6852,
      "ĠKosov": 6853,
      "uba": 6854,
      "manent": 6855,
      "ĠAdministration": 6856,
      "Ġoperating": 6857,
      "occasion": 6858,
      "Ġleading": 6859,
      "centage": 6860,
      "ĠdÃ©sarmement": 6861,
      "Ġobtained": 6862,
      "Ġphysique": 6863,
      "http": 6864,
      "Ġ!": 6865,
      "ori": 6866,
      "ison": 6867,
      "omal": 6868,
      "activitÃ©s": 6869,
      "ĠDocument": 6870,
      "Ġcomprom": 6871,
      "Ġfail": 6872,
      "Ġ56": 6873,
      "Ġtravers": 6874,
      "Ġoptim": 6875,
      "Ġcorruption": 6876,
      "Ġfemme": 6877,
      "Ġconnection": 6878,
      "ĠstratÃ©giques": 6879,
      "III": 6880,
      "Ġadvice": 6881,
      "ĠÃ©chÃ©": 6882,
      "Ġseparate": 6883,
      "80": 6884,
      "BS": 6885,
      "na": 6886,
      "index": 6887,
      "Ġcont": 6888,
      "ĠdÃ©pend": 6889,
      "Ġhumains": 6890,
      "ĠdÃ©ploy": 6891,
      "Ġrequirement": 6892,
      "impÃ´t": 6893,
      "Ġlonger": 6894,
      "Ġproduced": 6895,
      "ĠCommunications": 6896,
      "ĠdiversitÃ©": 6897,
      "Ġplease": 6898,
      "Ġquelque": 6899,
      "ĠÃ©trangers": 6900,
      "ĠÃ©trangÃ¨res": 6901,
      "Ġtarif": 6902,
      "Ġinfluence": 6903,
      "Ġattribu": 6904,
      "52": 6905,
      "CI": 6906,
      "rin": 6907,
      "yer": 6908,
      "Ġ49": 6909,
      "Ġassets": 6910,
      "Ġexplic": 6911,
      "Ġmaintenir": 6912,
      "ĠprivÃ©e": 6913,
      "Ġterritoires": 6914,
      "occu": 6915,
      "Ġdifficul": 6916,
      "Ġpuisse": 6917,
      "ĠPalestinian": 6918,
      "related": 6919,
      "Ġchercheurs": 6920,
      "AprÃ¨s": 6921,
      "ude": 6922,
      "Ġwide": 6923,
      "ocation": 6924,
      "cession": 6925,
      "ĠHaut": 6926,
      "Ġaccus": 6927,
      "lementation": 6928,
      "Ġmarine": 6929,
      "Ġorganized": 6930,
      "ĠgÃ©nÃ©rales": 6931,
      "Ġcancer": 6932,
      "Ġeffectiveness": 6933,
      "Ġkind": 6934,
      "Ġprincipales": 6935,
      "Ġimproving": 6936,
      "Ġprovinci": 6937,
      "Ġestimated": 6938,
      "Ġofficielles": 6939,
      "ĠCharte": 6940,
      "Ġdangere": 6941,
      "informations": 6942,
      "DS": 6943,
      "Ġcul": 6944,
      "trer": 6945,
      "ĠIS": 6946,
      "endra": 6947,
      "ommod": 6948,
      "ĠFederation": 6949,
      "clam": 6950,
      "ĠtraitÃ©s": 6951,
      "Ġindustries": 6952,
      "Ġstart": 6953,
      "Ġsocio": 6954,
      "ircraft": 6955,
      "Ã©change": 6956,
      "Institut": 6957,
      "cal": 6958,
      "making": 6959,
      "Ġtests": 6960,
      "Ġpages": 6961,
      "Ġpalestin": 6962,
      "ĠCy": 6963,
      "ĠCent": 6964,
      "ĠAustral": 6965,
      "ĠdÃ©cl": 6966,
      "andes": 6967,
      "ĠNorthern": 6968,
      "ĠTax": 6969,
      "Ġinterview": 6970,
      "Ġperf": 6971,
      "uestions": 6972,
      "Ġemploi": 6973,
      "ittees": 6974,
      "Ġeffectively": 6975,
      "ĠrÃ©ponses": 6976,
      "Ġrecommandation": 6977,
      "Ã©volution": 6978,
      "Ġpetites": 6979,
      "Ġmentioned": 6980,
      "Ġcompensation": 6981,
      "Ġdisease": 6982,
      "Ġconfiance": 6983,
      "AO": 6984,
      "Ġtribun": 6985,
      "Ġcrisis": 6986,
      "Ġstim": 6987,
      "quie": 6988,
      "ĠbÃ¢ti": 6989,
      "ĠNouvelle": 6990,
      "Ġalthough": 6991,
      "istant": 6992,
      "Ġimpacts": 6993,
      "Ġinsurance": 6994,
      "Ġtransit": 6995,
      "ĠVancouver": 6996,
      "ĠprÃ©sentÃ©e": 6997,
      "ĠrÃ©gionale": 6998,
      "ĠMark": 6999,
      "Ġexpertise": 7000,
      "ĠOfficer": 7001,
      "Ġvehicles": 7002,
      "Ġsubsidi": 7003,
      "Ġconnexes": 7004,
      "Pre": 7005,
      "hist": 7006,
      "rez": 7007,
      "ĠDan": 7008,
      "Ġconsiste": 7009,
      "Ġattra": 7010,
      "Ġsections": 7011,
      "Ġ59": 7012,
      "veloppement": 7013,
      "Ã§ant": 7014,
      "Ġexamine": 7015,
      "Ġscre": 7016,
      "mbass": 7017,
      "olesc": 7018,
      "Ġpartenariats": 7019,
      "Ġcommuniquer": 7020,
      "ĠProcess": 7021,
      "Ġnation": 7022,
      "Ġnomm": 7023,
      "ĠAgric": 7024,
      "lif": 7025,
      "ĠTim": 7026,
      "Ġnotice": 7027,
      "Ġcompter": 7028,
      "ĠGo": 7029,
      "Ġtraite": 7030,
      "Ġwaste": 7031,
      "Ġindigenous": 7032,
      "obtenir": 7033,
      "tentes": 7034,
      "ĠCorporation": 7035,
      "Ġpetits": 7036,
      "Ġschools": 7037,
      "ĠdÃ©posÃ©": 7038,
      "ĠcaractÃ©ristiques": 7039,
      "Co": 7040,
      "moins": 7041,
      "Ġsil": 7042,
      "ĠmÃªmes": 7043,
      "ombre": 7044,
      "ush": 7045,
      "ĠPakistan": 7046,
      "ĠÃ©laborer": 7047,
      "estre": 7048,
      "utor": 7049,
      "Ġcependant": 7050,
      "Ġ04": 7051,
      "Ġfamili": 7052,
      "Ġgradu": 7053,
      "Ġministres": 7054,
      "ĠKosovo": 7055,
      "LO": 7056,
      "MC": 7057,
      "vres": 7058,
      "ĠtÃ©": 7059,
      "Ġsl": 7060,
      "Ġfri": 7061,
      "Ġment": 7062,
      "rimer": 7063,
      "Ġprices": 7064,
      "oto": 7065,
      "ductions": 7066,
      "Ġreflect": 7067,
      "Ġindicators": 7068,
      "ĠrÃ©sultat": 7069,
      "Ġsetting": 7070,
      "Ġterritory": 7071,
      "Ġsexual": 7072,
      "ĠDÃ©partement": 7073,
      "ĠTransport": 7074,
      "Ġalternative": 7075,
      "cussions": 7076,
      "Ã©tranger": 7077,
      "MENT": 7078,
      "hood": 7079,
      "Ġpun": 7080,
      "quence": 7081,
      "ĠMich": 7082,
      "ĠextÃ©rie": 7083,
      "ĠFOR": 7084,
      "Ġatmosph": 7085,
      "venu": 7086,
      "Ġofficers": 7087,
      "Ġmener": 7088,
      "lantique": 7089,
      "Ġoffers": 7090,
      "And": 7091,
      "Ġrecommendation": 7092,
      "pd": 7093,
      "Ġdistance": 7094,
      "Ġtard": 7095,
      "orn": 7096,
      "Ġconception": 7097,
      "Ġparlement": 7098,
      "Ġduties": 7099,
      "oslav": 7100,
      "ĠBay": 7101,
      "Ġcompagn": 7102,
      "load": 7103,
      "Ġtraiter": 7104,
      "Ã©nie": 7105,
      "ĠWIPO": 7106,
      "Ġaccr": 7107,
      "ducts": 7108,
      "ĠinfÃ©rie": 7109,
      "ĠGuid": 7110,
      "Ġinstance": 7111,
      "Ġjouer": 7112,
      "Ġsensibilisation": 7113,
      "Ġdiplom": 7114,
      "Ġfournisseurs": 7115,
      "iddle": 7116,
      "ĠDefence": 7117,
      "Mal": 7118,
      "Ġsize": 7119,
      "Ġmari": 7120,
      "atement": 7121,
      "Ġquelle": 7122,
      "Ġpartage": 7123,
      "abord": 7124,
      "Ġsusp": 7125,
      "Ġaward": 7126,
      "Ġenterpr": 7127,
      "Ġunderstand": 7128,
      "Ġuniquement": 7129,
      "Ġcommerciale": 7130,
      "ĠPanel": 7131,
      "'t": 7132,
      "AV": 7133,
      "Ġ...": 7134,
      "Ġcontient": 7135,
      "ĠIR": 7136,
      "ĠNig": 7137,
      "amen": 7138,
      "Ġpreparation": 7139,
      "ocuments": 7140,
      "Ġuseful": 7141,
      "Ġlimite": 7142,
      "ĠrÃ¨gle": 7143,
      "Ġcorrec": 7144,
      "Ġvuln": 7145,
      "Ġtoxic": 7146,
      "anes": 7147,
      "atte": 7148,
      "Ġbou": 7149,
      "ĠST": 7150,
      "ĠSi": 7151,
      "Ã¨nes": 7152,
      "Ã¨rent": 7153,
      "ĠFÃ©dÃ©ration": 7154,
      "Ġpeine": 7155,
      "avi": 7156,
      "ĠgÃ©nÃ©raux": 7157,
      "Ġseries": 7158,
      "Under": 7159,
      "Ġoption": 7160,
      "Ġsignature": 7161,
      "Ġoccasion": 7162,
      "Ġrendu": 7163,
      "Ġarmed": 7164,
      "ustainable": 7165,
      "kraine": 7166,
      "nÃ©s": 7167,
      "pt": 7168,
      "ened": 7169,
      "asp": 7170,
      "Ġpara": 7171,
      "Ġvu": 7172,
      "accep": 7173,
      "emin": 7174,
      "Ġsearch": 7175,
      "ĠWestern": 7176,
      "ĠpubliÃ©": 7177,
      "Ġusers": 7178,
      "Ġdevelopments": 7179,
      "Ġoutcome": 7180,
      "Annexe": 7181,
      "Ġpractical": 7182,
      "Ġinvestissements": 7183,
      "Ġdiscussed": 7184,
      "ĠGermany": 7185,
      "Ġoutils": 7186,
      "Ġlegislative": 7187,
      "PrÃ©": 7188,
      "aie": 7189,
      "tia": 7190,
      "ino": 7191,
      "ores": 7192,
      "ĠDrug": 7193,
      "andis": 7194,
      "force": 7195,
      "Ġconsum": 7196,
      "ape": 7197,
      "Ind": 7198,
      "Ġterre": 7199,
      "Ã´m": 7200,
      "sida": 7201,
      "Ġjuste": 7202,
      "Ġmilliards": 7203,
      "Ġpayments": 7204,
      "ĠadoptÃ©e": 7205,
      "appliquer": 7206,
      "ĠÃ©tudiants": 7207,
      "ĠAsia": 7208,
      "augmentation": 7209,
      "DG": 7210,
      "med": 7211,
      "Ġled": 7212,
      "aritÃ©": 7213,
      "ĠCivil": 7214,
      "irms": 7215,
      "ĠrÃ©cemment": 7216,
      "duit": 7217,
      "ĠadÃ©qu": 7218,
      "Ġimplications": 7219,
      "Ġtransform": 7220,
      "Ġtransactions": 7221,
      "ĠVic": 7222,
      "ĠclÃ©s": 7223,
      "Ġparticipating": 7224,
      "AND": 7225,
      "Ġroom": 7226,
      "ĠAssessment": 7227,
      "engagement": 7228,
      "Ġcommunautaires": 7229,
      "Ġfunctions": 7230,
      "Ġprincipalement": 7231,
      "Ġchallenge": 7232,
      "Ġalimentaire": 7233,
      "MI": 7234,
      "WP": 7235,
      "dite": 7236,
      "hÃ´tel": 7237,
      "ots": 7238,
      "rance": 7239,
      "rÃ©es": 7240,
      "Ġemissions": 7241,
      "Ġfore": 7242,
      "Ġhos": 7243,
      "Ġ($": 7244,
      "ĠdÃ©part": 7245,
      "Ġresol": 7246,
      "Ġappell": 7247,
      "imm": 7248,
      "ĠWar": 7249,
      "ĠprÃ©al": 7250,
      "Enfin": 7251,
      "Ġexplain": 7252,
      "Ġtemper": 7253,
      "Ġindicate": 7254,
      "Ġoffered": 7255,
      "ĠPermanent": 7256,
      "ĠsoulignÃ©": 7257,
      "obligation": 7258,
      "gyp": 7259,
      "vail": 7260,
      "ype": 7261,
      "Ġlinguis": 7262,
      "Ġfid": 7263,
      "ĠBranch": 7264,
      "ama": 7265,
      "Ġappare": 7266,
      "ĠHotel": 7267,
      "ĠVi": 7268,
      "Ġindique": 7269,
      "Ġlimites": 7270,
      "Ġrecevoir": 7271,
      "Ġestablishing": 7272,
      "ĠmodalitÃ©s": 7273,
      "rastructures": 7274,
      "Ġagricoles": 7275,
      "Ġintroduced": 7276,
      "Ġcommentaires": 7277,
      "Ġgovernance": 7278,
      "Ġundertaking": 7279,
      "Ġgranted": 7280,
      "Ġratification": 7281,
      "ĠRepresentative": 7282,
      "69": 7283,
      "ATI": 7284,
      "WG": 7285,
      "Ġintention": 7286,
      "Ġvoul": 7287,
      "tÃ©n": 7288,
      "lying": 7289,
      "Ġintervention": 7290,
      "Ġsoon": 7291,
      "Ġsecure": 7292,
      "jected": 7293,
      "Ġmanque": 7294,
      "Ġmines": 7295,
      "Ġotherwise": 7296,
      "UniversitÃ©": 7297,
      "ĠAfrique": 7298,
      "ĠpÃ©nale": 7299,
      "Ġchemical": 7300,
      "Ġintellectuelle": 7301,
      "Ġdirige": 7302,
      "rc": 7303,
      "rice": 7304,
      "ÂĴ": 7305,
      "erait": 7306,
      "Ġfront": 7307,
      "Ġrig": 7308,
      "lymp": 7309,
      "Ġalmost": 7310,
      "Ġintergouvernement": 7311,
      "Ġsav": 7312,
      "ĠgÃ©nÃ©": 7313,
      "troph": 7314,
      "ESS": 7315,
      "ĠStand": 7316,
      "Ã©rables": 7317,
      "ĠprocÃ©der": 7318,
      "Ġexpect": 7319,
      "Ġrecords": 7320,
      "Recomm": 7321,
      "Ġpeuple": 7322,
      "Ġbeginning": 7323,
      "Vo": 7324,
      "water": 7325,
      "yond": 7326,
      "edule": 7327,
      "etÃ©": 7328,
      "Ġgain": 7329,
      "agers": 7330,
      "tÃ©m": 7331,
      "diff": 7332,
      "Ġplant": 7333,
      "Ġdiscrimin": 7334,
      "ĠHome": 7335,
      "Ġtrust": 7336,
      "aving": 7337,
      "Ġpresence": 7338,
      "Ġfollowed": 7339,
      "Ġmodifier": 7340,
      "ĠMinisters": 7341,
      "Ġmedium": 7342,
      "Ġamendment": 7343,
      "ĠSupport": 7344,
      "ĠconsÃ©quence": 7345,
      "Ġprofessionnelle": 7346,
      "ĠRoom": 7347,
      "Ġconcentrations": 7348,
      "applique": 7349,
      "Ġdetailed": 7350,
      "ĠnuclÃ©aire": 7351,
      "Ġhaute": 7352,
      "Ġcirconstances": 7353,
      "ugal": 7354,
      "roits": 7355,
      "asso": 7356,
      "Ġvac": 7357,
      "agric": 7358,
      "Ġpren": 7359,
      "endix": 7360,
      "ĠGlobal": 7361,
      "ĠHar": 7362,
      "titudes": 7363,
      "Ġ53": 7364,
      "ĠEng": 7365,
      "Ġparagraphs": 7366,
      "Ġtakes": 7367,
      "ĠrÃ©alisÃ©s": 7368,
      "Ġguidance": 7369,
      "ĠÃ©vÃ©n": 7370,
      "Ġconcentration": 7371,
      "Ġurb": 7372,
      "Ġcommerciaux": 7373,
      "Ġchimiques": 7374,
      "Ġcultures": 7375,
      "ĠBosn": 7376,
      "innovation": 7377,
      "initiative": 7378,
      "Ġconventions": 7379,
      "iring": 7380,
      "irme": 7381,
      "ĠÃ©lections": 7382,
      "Ġbeyond": 7383,
      "minister": 7384,
      "Ġrecons": 7385,
      "akers": 7386,
      "ĠprÃ©vue": 7387,
      "Ġefficiency": 7388,
      "affaires": 7389,
      "Ġinvolving": 7390,
      "Ġcirculation": 7391,
      "ambres": 7392,
      "Ġtreaty": 7393,
      "Ġdebt": 7394,
      "Ġethnic": 7395,
      "Ġvulner": 7396,
      "Ori": 7397,
      "bi": 7398,
      "han": 7399,
      "Ġside": 7400,
      "Ġreduced": 7401,
      "ĠSco": 7402,
      "Ġvra": 7403,
      "Ġchos": 7404,
      "Ġpasse": 7405,
      "Ġagent": 7406,
      "Ġart": 7407,
      "Ġ75": 7408,
      "Ġsigned": 7409,
      "ANT": 7410,
      "ĠfondÃ©e": 7411,
      "Ġfourni": 7412,
      "ourable": 7413,
      "ĠmÃ©dicaments": 7414,
      "Canadian": 7415,
      "Ġabsol": 7416,
      "Ġreached": 7417,
      "ĠgÃ©ograph": 7418,
      "ĠArchives": 7419,
      "RA": 7420,
      "ansion": 7421,
      "Ġstri": 7422,
      "ĠNO": 7423,
      "ĠGene": 7424,
      "Ġseen": 7425,
      "existence": 7426,
      "ĠVol": 7427,
      "Ġsoutenir": 7428,
      "Ġexpli": 7429,
      "Ġfaites": 7430,
      "Ġinstitutional": 7431,
      "ĠdestinÃ©s": 7432,
      "Ġexclusive": 7433,
      "Ġcondam": 7434,
      "Ġwebsite": 7435,
      "Ġcity": 7436,
      "Ġbois": 7437,
      "Ġhalf": 7438,
      "Ġauton": 7439,
      "ĠSOC": 7440,
      "ariat": 7441,
      "Ġ41": 7442,
      "Ġmind": 7443,
      "ĠdÃ©pÃ´t": 7444,
      "ĠAdd": 7445,
      "agnos": 7446,
      "Ġaccept": 7447,
      "Ġstep": 7448,
      "After": 7449,
      "Ġrelease": 7450,
      "Ġfondamentaux": 7451,
      "ĠcatÃ©gories": 7452,
      "International": 7453,
      "ĠPeople": 7454,
      "QUE": 7455,
      "ll": 7456,
      "yg": 7457,
      "Ġdepos": 7458,
      "Ġapporter": 7459,
      "Ġnear": 7460,
      "Ġnever": 7461,
      "Ġmaritime": 7462,
      "Ġrapporteur": 7463,
      "ĠempÃª": 7464,
      "Association": 7465,
      "ĠutilisÃ©es": 7466,
      "ĠTraining": 7467,
      "Ġfigurant": 7468,
      "laced": 7469,
      "ĠsÃ»re": 7470,
      "Ġjurisdiction": 7471,
      "ĠrÃ©guliÃ¨re": 7472,
      "ĠFramework": 7473,
      "ilit": 7474,
      "Ġrevised": 7475,
      "Ġduty": 7476,
      "adem": 7477,
      "limination": 7478,
      "Ġseem": 7479,
      "Ġsoft": 7480,
      "ĠWater": 7481,
      "ĠPartie": 7482,
      "pending": 7483,
      "ifications": 7484,
      "Ġsold": 7485,
      "ĠconnaÃ®tre": 7486,
      "Ġ1989": 7487,
      "ĠTechnology": 7488,
      "Ġdossiers": 7489,
      "ĠenquÃªtes": 7490,
      "FOR": 7491,
      "Mar": 7492,
      "vÃ©s": 7493,
      "ville": 7494,
      "ï¬ģ": 7495,
      "enting": 7496,
      "Ġlieux": 7497,
      "itter": 7498,
      "ĠCD": 7499,
      "tein": 7500,
      "ĠPacte": 7501,
      "aily": 7502,
      "Ġprec": 7503,
      "avait": 7504,
      "Ġamounts": 7505,
      "ĠparticipÃ©": 7506,
      "ĠdÃ©coul": 7507,
      "cides": 7508,
      "Ġ%)": 7509,
      "Ġindicateurs": 7510,
      "Ġutilisateurs": 7511,
      "Ġpaiements": 7512,
      "Ġentry": 7513,
      "Ġreasonable": 7514,
      "ĠCANADA": 7515,
      "Man": 7516,
      "oque": 7517,
      "pite": 7518,
      "ourg": 7519,
      "Ġauteurs": 7520,
      "ĠSite": 7521,
      "ĠPage": 7522,
      "Ġnotification": 7523,
      "formÃ©ment": 7524,
      "ordonn": 7525,
      "Ġ98": 7526,
      "Ġpharm": 7527,
      "ĠcrÃ©dits": 7528,
      "cidents": 7529,
      "Ġ1988": 7530,
      "ennent": 7531,
      "Ġprofessionnel": 7532,
      "Ġjudicial": 7533,
      "ĠIsrael": 7534,
      "Ġmultilat": 7535,
      "ĠCriminal": 7536,
      "Ġcommissions": 7537,
      "oon": 7538,
      "zation": 7539,
      "Ġsmo": 7540,
      "Ġstruct": 7541,
      "armes": 7542,
      "adap": 7543,
      "Ã©sor": 7544,
      "audi": 7545,
      "tenues": 7546,
      "Ġargu": 7547,
      "Ġsouff": 7548,
      "eneurs": 7549,
      "Ġexpert": 7550,
      "Ġgoal": 7551,
      "espace": 7552,
      "Ġpertinentes": 7553,
      "ĠChairman": 7554,
      "ĠcomplÃ¨te": 7555,
      "Ġapproximately": 7556,
      "quarters": 7557,
      "Ġstimul": 7558,
      "94": 7559,
      "iquement": 7560,
      "Ġsatell": 7561,
      "Ġannexe": 7562,
      "Ġrich": 7563,
      "Ã¨se": 7564,
      "oster": 7565,
      "Ġpresse": 7566,
      "Ġpourra": 7567,
      "Ġextend": 7568,
      "ĠGaz": 7569,
      "ĠCommon": 7570,
      "angl": 7571,
      "Ġindisp": 7572,
      "ĠComment": 7573,
      "accent": 7574,
      "Ġprincipale": 7575,
      "Ġfournit": 7576,
      "enfants": 7577,
      "ĠdÃ©chets": 7578,
      "Cet": 7579,
      "NA": 7580,
      "See": 7581,
      "WA": 7582,
      "del": 7583,
      "hu": 7584,
      "vo": 7585,
      "Ġaircraft": 7586,
      "Ġtal": 7587,
      "unis": 7588,
      "Ġprolong": 7589,
      "ola": 7590,
      "ulgation": 7591,
      "ayer": 7592,
      "uxiÃ¨me": 7593,
      "ĠprÃ©venir": 7594,
      "Ġsys": 7595,
      "Ġfactor": 7596,
      "ĠdÃ©velopper": 7597,
      "ĠdonnÃ©e": 7598,
      "Ġspir": 7599,
      "ĠconsidÃ©rable": 7600,
      "1997": 7601,
      "1998": 7602,
      "Ġfeed": 7603,
      "Ġfeel": 7604,
      "ministrative": 7605,
      "ĠMembers": 7606,
      "Ġutile": 7607,
      "ĠdÃ©liv": 7608,
      "Ġmeaning": 7609,
      "abinet": 7610,
      "Ms": 7611,
      "cs": 7612,
      "zer": 7613,
      "âĦ": 7614,
      "Ġoil": 7615,
      "atch": 7616,
      "urb": 7617,
      "Ġgam": 7618,
      "auv": 7619,
      "ĠGra": 7620,
      "Ġsupporting": 7621,
      "ĠsiÃ¨": 7622,
      "ournÃ©e": 7623,
      "Ġfournis": 7624,
      "Ġconcours": 7625,
      "ĠExp": 7626,
      "Ġvariety": 7627,
      "Ġ1987": 7628,
      "ĠassociÃ©s": 7629,
      "ĠcollectivitÃ©": 7630,
      "ĠspÃ©ciales": 7631,
      "Ġdeploy": 7632,
      "Ġresulting": 7633,
      "Ġreligion": 7634,
      "Ġpatient": 7635,
      "vincial": 7636,
      "Elles": 7637,
      "fort": 7638,
      "found": 7639,
      "habil": 7640,
      "jan": 7641,
      "ral": 7642,
      "Ġsales": 7643,
      "Ġold": 7644,
      "Ġinnovation": 7645,
      "chement": 7646,
      "opulation": 7647,
      "ously": 7648,
      "Ġcompati": 7649,
      "akh": 7650,
      "ouverture": 7651,
      "ĠPriv": 7652,
      "appelant": 7653,
      "Ġabsence": 7654,
      "Ġtransparence": 7655,
      "Rapport": 7656,
      "Ġconcluded": 7657,
      "Ġindispens": 7658,
      "500": 7659,
      "GC": 7660,
      "Min": 7661,
      "tidi": 7662,
      "Ġpal": 7663,
      "Ġleft": 7664,
      "Ġhapp": 7665,
      "ulf": 7666,
      "taine": 7667,
      "ĠAL": 7668,
      "Ġforte": 7669,
      "ĠEX": 7670,
      "Ġconst": 7671,
      "Ġproduire": 7672,
      "ÃīR": 7673,
      "Ġrecommande": 7674,
      "Ġapplicables": 7675,
      "Ġspecifically": 7676,
      "Ġinvestigation": 7677,
      "Ġearlier": 7678,
      "ĠSummit": 7679,
      "ĠEmployment": 7680,
      "Ġtribunaux": 7681,
      "RÃ©s": 7682,
      "TH": 7683,
      "Ġsw": 7684,
      "Ġfich": 7685,
      "rois": 7686,
      "Ġconcep": 7687,
      "Ġparvenir": 7688,
      "ĠAM": 7689,
      "Ġpourcentage": 7690,
      "duire": 7691,
      "Ġcomporte": 7692,
      "ĠFre": 7693,
      "amer": 7694,
      "ordination": 7695,
      "Ġposts": 7696,
      "Ġ95": 7697,
      "ĠDeleg": 7698,
      "Ġcivils": 7699,
      "ĠdÃ©finir": 7700,
      "Ġcontinuing": 7701,
      "Ġrecently": 7702,
      "ĠsupplÃ©mentaire": 7703,
      "blioth": 7704,
      "Tout": 7705,
      "utÃ©": 7706,
      "once": 7707,
      "tile": 7708,
      "ercer": 7709,
      "anmoins": 7710,
      "Ġcess": 7711,
      "Ġnam": 7712,
      "etary": 7713,
      "ĠStreet": 7714,
      "ĠMaj": 7715,
      "Ġappui": 7716,
      "Ġrecovery": 7717,
      "sep": 7718,
      "eneur": 7719,
      "ĠmodÃ¨les": 7720,
      "Ġpossibility": 7721,
      "Ġmigration": 7722,
      "lined": 7723,
      "Ġaccountability": 7724,
      "xxxx": 7725,
      "âĦ¢": 7726,
      "Col": 7727,
      "Tr": 7728,
      "tanding": 7729,
      "Ġmg": 7730,
      "legal": 7731,
      "unitÃ©": 7732,
      "unav": 7733,
      "Ġrue": 7734,
      "astroph": 7735,
      "Ġunits": 7736,
      "lementary": 7737,
      "ierra": 7738,
      "Ġobjet": 7739,
      "Ġ61": 7740,
      "ribution": 7741,
      "ĠintÃ©rÃªt": 7742,
      "ĠtempÃ©r": 7743,
      "Ġrecettes": 7744,
      "head": 7745,
      "Ġimprovement": 7746,
      "Ġacceptable": 7747,
      "Ġexige": 7748,
      "Ġextraordin": 7749,
      "Ġeligible": 7750,
      "Ġdetails": 7751,
      "ĠapprouvÃ©": 7752,
      "ĠJapon": 7753,
      "ĠvolontÃ©": 7754,
      "ĠPacific": 7755,
      "Ġeducational": 7756,
      ".:": 7757,
      "ki": 7758,
      "zone": 7759,
      "Ġdil": 7760,
      "Ġlien": 7761,
      "ints": 7762,
      "indi": 7763,
      "rog": 7764,
      "Ġconduc": 7765,
      "ĠMain": 7766,
      "agu": 7767,
      "aging": 7768,
      "Ġtrafic": 7769,
      "grad": 7770,
      "Ġarg": 7771,
      "Ġstocks": 7772,
      "Ġinfra": 7773,
      "ĠAng": 7774,
      "Ġsuspend": 7775,
      "Ġanswer": 7776,
      "Ġgraves": 7777,
      "Ġassociation": 7778,
      "organisme": 7779,
      "Ġglobale": 7780,
      "Ġkeep": 7781,
      "Ġcontamin": 7782,
      "Ġcandidate": 7783,
      "ĠÃ©nergÃ©": 7784,
      "mÃ©diaire": 7785,
      "mary": 7786,
      "Ġtaille": 7787,
      "Ġpi": 7788,
      "Ġretr": 7789,
      "rador": 7790,
      "ĠLand": 7791,
      "Ġtient": 7792,
      "Ġtiss": 7793,
      "enez": 7794,
      "Ġdifferences": 7795,
      "Ġadvant": 7796,
      "Ġbreak": 7797,
      "Ġmunicipal": 7798,
      "Ġdatab": 7799,
      "ĠintitulÃ©": 7800,
      "ĠpÃ©tro": 7801,
      "ECE": 7802,
      "She": 7803,
      "XX": 7804,
      "mont": 7805,
      "rich": 7806,
      "Ġinvent": 7807,
      "ĠNation": 7808,
      "otechn": 7809,
      "Ġ69": 7810,
      "achat": 7811,
      "Ġcolon": 7812,
      "Ġcooper": 7813,
      "Ġamended": 7814,
      "ĠâĪĴ": 7815,
      "Ġmanagers": 7816,
      "ĠRelations": 7817,
      "from": 7818,
      "gary": 7819,
      "kes": 7820,
      "Ġaient": 7821,
      "urÃ©": 7822,
      "Ġbank": 7823,
      "Ġparent": 7824,
      "Ġfort": 7825,
      "ĠMet": 7826,
      "agent": 7827,
      "Ġimporte": 7828,
      "Ġperte": 7829,
      "exportation": 7830,
      "Ġ51": 7831,
      "ĠprÃ©f": 7832,
      "Ġprocessing": 7833,
      "ternet": 7834,
      "Ġhighl": 7835,
      "Ġcourts": 7836,
      "Ġcalend": 7837,
      "Reg": 7838,
      "Ġanalyses": 7839,
      "Ġpetit": 7840,
      "Ġpeacekeeping": 7841,
      "Ġadjust": 7842,
      "Ġtariff": 7843,
      "Ġretraite": 7844,
      "Ġtotale": 7845,
      "Ġdrogues": 7846,
      "Ġdegree": 7847,
      "ga": 7848,
      "wo": 7849,
      "Ġtu": 7850,
      "Ġbur": 7851,
      "Ġbrief": 7852,
      "Ġrur": 7853,
      "ĠCust": 7854,
      "thi": 7855,
      "Ġpron": 7856,
      "Ġchambres": 7857,
      "Ġaccommod": 7858,
      "Ġ54": 7859,
      "ĠReprÃ©sent": 7860,
      "Ġobtenu": 7861,
      "Ġclasse": 7862,
      "Ġ65": 7863,
      "utiliser": 7864,
      "Ġutilisation": 7865,
      "Ġhighly": 7866,
      "ĠrÃ©partition": 7867,
      "ĠsystÃ©m": 7868,
      "212": 7869,
      "bjec": 7870,
      "Ġ`": 7871,
      "Ġdomm": 7872,
      "Ġpense": 7873,
      "Ġcontenant": 7874,
      "ĠSerb": 7875,
      "mping": 7876,
      "amily": 7877,
      "Ġappu": 7878,
      "Ġinterested": 7879,
      "Ġ300": 7880,
      "ĠKen": 7881,
      "United": 7882,
      "Ġ77": 7883,
      "intervention": 7884,
      "Ġaware": 7885,
      "ATIONS": 7886,
      "Ġgrowing": 7887,
      "Ġpermanente": 7888,
      "Ġpuissent": 7889,
      "ĠminoritÃ©s": 7890,
      "Ġï£": 7891,
      "Ġinterpret": 7892,
      "ĠrÃ©percussions": 7893,
      "iÃ©es": 7894,
      "Ġtask": 7895,
      "level": 7896,
      "ĠCare": 7897,
      "Ġhon": 7898,
      "taux": 7899,
      "ĠdÃ©rou": 7900,
      "Ġcompor": 7901,
      "ÂłÂł": 7902,
      "formance": 7903,
      "Ã©naire": 7904,
      "Ġdevait": 7905,
      "Ġinvite": 7906,
      "Ġinfec": 7907,
      "Ġconcre": 7908,
      "ĠAdministrative": 7909,
      "Ġderniers": 7910,
      "ĠNews": 7911,
      "Ġcampaign": 7912,
      "ĠcÃ´tÃ©": 7913,
      "Ġcatastroph": 7914,
      "Ġoppos": 7915,
      "ĠtÃ¢ches": 7916,
      "PL": 7917,
      "dra": 7918,
      "nership": 7919,
      "oks": 7920,
      "Ġrail": 7921,
      "Ġselected": 7922,
      "Ġartis": 7923,
      "ĠstabilitÃ©": 7924,
      "Ġorganisme": 7925,
      "ennium": 7926,
      "Ġinvolvement": 7927,
      "ĠconsidÃ©rÃ©e": 7928,
      "Such": 7929,
      "autoritÃ©": 7930,
      "ĠÃ©larg": 7931,
      "ĠScotia": 7932,
      "Ġ#": 7933,
      "Ġstra": 7934,
      "Ġnotif": 7935,
      "Inde": 7936,
      "Ġrequis": 7937,
      "ditional": 7938,
      "acco": 7939,
      "Ġsupports": 7940,
      "ĠsÃ©par": 7941,
      "Ġcombin": 7942,
      "Ġtaxe": 7943,
      "ĠTrÃ©sor": 7944,
      "law": 7945,
      "Description": 7946,
      "Ġretour": 7947,
      "Ġcontains": 7948,
      "Ġgenre": 7949,
      "ĠRecomm": 7950,
      "Ġlogici": 7951,
      "aider": 7952,
      "Ġmeilleur": 7953,
      "Ġgouvernance": 7954,
      "ĠPortugal": 7955,
      "ĠAuthority": 7956,
      "note": 7957,
      "onia": 7958,
      "Ã©tudes": 7959,
      "Ġtandis": 7960,
      "ali": 7961,
      "oma": 7962,
      "Ġlab": 7963,
      "Ġrang": 7964,
      "elier": 7965,
      "ĠSup": 7966,
      "Ġonline": 7967,
      "idence": 7968,
      "Ġplaces": 7969,
      "Ġouv": 7970,
      "Ġcommunes": 7971,
      "Ġtranspor": 7972,
      "ĠallÃ©g": 7973,
      "ĠPark": 7974,
      "Ġhumaine": 7975,
      "Ġjeu": 7976,
      "Ġpasser": 7977,
      "Ġimmun": 7978,
      "Ġreconnaissance": 7979,
      "Ġsignificantly": 7980,
      "Ġchemin": 7981,
      "Ġpenal": 7982,
      "ĠScience": 7983,
      "ĠprÃ©occupations": 7984,
      "ĠJean": 7985,
      "agriculture": 7986,
      "Many": 7987,
      "TM": 7988,
      "ania": 7989,
      "itness": 7990,
      "urÃ©e": 7991,
      "astern": 7992,
      "Ã¨tes": 7993,
      "ĠDÃ©c": 7994,
      "ĠItal": 7995,
      "ĠapprÃ©": 7996,
      "cipient": 7997,
      "Ġdiam": 7998,
      "ĠUnit": 7999,
      "ĠProjet": 8000,
      "ĠRef": 8001,
      "Ġnomination": 8002,
      "Ġpartner": 8003,
      "Ġoutcomes": 8004,
      "ĠbudgÃ©taires": 8005,
      "Ġcontraire": 8006,
      "Ġ1985": 8007,
      "Ġoccas": 8008,
      "Ġculturels": 8009,
      "Ġtextes": 8010,
      "Ġpressure": 8011,
      "CD": 8012,
      "bes": 8013,
      "milli": 8014,
      "yan": 8015,
      "Ġtesting": 8016,
      "Ġow": 8017,
      "Ġmou": 8018,
      "ĠrÃĥ": 8019,
      "ece": 8020,
      "ĠexpÃ©ri": 8021,
      "ĠDav": 8022,
      "ĠEst": 8023,
      "Ġouts": 8024,
      "ĠInitiative": 8025,
      "alling": 8026,
      "ĠVice": 8027,
      "Ġexpenses": 8028,
      "lled": 8029,
      "ĠeuropÃ©ens": 8030,
      "Ġspati": 8031,
      "ĠMrs": 8032,
      "ĠdÃ©lais": 8033,
      "Ġmutu": 8034,
      "ographic": 8035,
      "Ġapproaches": 8036,
      "ĠÃ©lectroniques": 8037,
      "Ġnetworks": 8038,
      "Ġpartnerships": 8039,
      "Ġwelcome": 8040,
      "ĠvÃ©ritable": 8041,
      "COM": 8042,
      "Me": 8043,
      "Ġsound": 8044,
      "itement": 8045,
      "arity": 8046,
      "Ġauquel": 8047,
      "ĠSous": 8048,
      "ĠStud": 8049,
      "Ġjobs": 8050,
      "Ġ46": 8051,
      "aceu": 8052,
      "ĠKore": 8053,
      "Ġsignif": 8054,
      "levision": 8055,
      "iterran": 8056,
      "Ġgouvernementaux": 8057,
      "Ġactuel": 8058,
      "Ġcollecte": 8059,
      "Ġgoing": 8060,
      "Ġrecognition": 8061,
      "Ġlisted": 8062,
      "Ġsemaine": 8063,
      "ĠDemocratic": 8064,
      "Ġcrucial": 8065,
      "79": 8066,
      "Tous": 8067,
      "fr": 8068,
      "ouvre": 8069,
      "Ġmerc": 8070,
      "ĠCuba": 8071,
      "ĠrÃ©vision": 8072,
      "ford": 8073,
      "Ġmarketing": 8074,
      "Ã©riques": 8075,
      "Ġ88": 8076,
      "Ġparticipant": 8077,
      "Ġdomin": 8078,
      "Ġbiais": 8079,
      "ĠfÃ©dÃ©raux": 8080,
      "Amendement": 8081,
      "effet": 8082,
      "Ġbehavi": 8083,
      "Ġhabitat": 8084,
      "Ġformulaire": 8085,
      "ĠOrder": 8086,
      "Ġcomplaint": 8087,
      "Ġmessage": 8088,
      "Ġcomponent": 8089,
      "Ġquotidi": 8090,
      "Per": 8091,
      "bers": 8092,
      "anim": 8093,
      "Ġsenti": 8094,
      "ĠCos": 8095,
      "rig": 8096,
      "Ġhard": 8097,
      "Ġhors": 8098,
      "ĠSierra": 8099,
      "Ġvaste": 8100,
      "Ġforest": 8101,
      "ĠNunav": 8102,
      "Ġconsumer": 8103,
      "Ġadolesc": 8104,
      "Ġatt": 8105,
      "ointed": 8106,
      "Ġdiagnos": 8107,
      "ĠConf": 8108,
      "ĠprÃ©sentÃ©s": 8109,
      "sibility": 8110,
      "tiennent": 8111,
      "expression": 8112,
      "ilipp": 8113,
      "Ġencourager": 8114,
      "Ġagricole": 8115,
      "Ġagricultural": 8116,
      "Ġanticip": 8117,
      "offre": 8118,
      "Ġanimaux": 8119,
      "ĠRoyal": 8120,
      "Ġplainte": 8121,
      "Ġexpenditures": 8122,
      "FP": 8123,
      "Sh": 8124,
      "urants": 8125,
      "Ġbis": 8126,
      "esses": 8127,
      "ĠdÃ©si": 8128,
      "opter": 8129,
      "onnel": 8130,
      "Ġmovement": 8131,
      "Ġofficer": 8132,
      "Ġpouvant": 8133,
      "Ġraised": 8134,
      "Ġvoluntary": 8135,
      "ĠÃ©coles": 8136,
      "Ġappliquer": 8137,
      "Ġconsulter": 8138,
      "ĠadoptÃ©es": 8139,
      "ĠAmendment": 8140,
      "ĠPrincip": 8141,
      "Ġpatrimoine": 8142,
      "Ġsuggested": 8143,
      "ĠquantitÃ©": 8144,
      "Ġperspectives": 8145,
      "Ġdemeure": 8146,
      "orientation": 8147,
      "Ġdistrict": 8148,
      "Ġstip": 8149,
      "PO": 8150,
      "Str": 8151,
      "position": 8152,
      "tone": 8153,
      "reland": 8154,
      "Ġfilles": 8155,
      "omin": 8156,
      "Ġbless": 8157,
      "riers": 8158,
      "ĠdÃ©n": 8159,
      "oper": 8160,
      "Ġreserv": 8161,
      "Ġdisting": 8162,
      "Ġcorporate": 8163,
      "Ġspons": 8164,
      "Ġ1986": 8165,
      "Ġessais": 8166,
      "Ġcharges": 8167,
      "ĠeuropÃ©ennes": 8168,
      "ĠeffectuÃ©": 8169,
      "ĠItaly": 8170,
      "where": 8171,
      "Ġmultilateral": 8172,
      "Ġconsolidation": 8173,
      "ĠCroati": 8174,
      "Ġdimension": 8175,
      "ĠimmÃ©diatement": 8176,
      "Ġsubsequent": 8177,
      "Ġdign": 8178,
      "ĠthÃ©": 8179,
      "Ġdeep": 8180,
      "Ġbaisse": 8181,
      "ĠCity": 8182,
      "iry": 8183,
      "Ġautant": 8184,
      "Ġving": 8185,
      "ĠMaur": 8186,
      "agissant": 8187,
      "Ġsum": 8188,
      "Ġacte": 8189,
      "ĠFR": 8190,
      "ĠOce": 8191,
      "Ġinstructions": 8192,
      "asser": 8193,
      "Ġprati": 8194,
      "Ġinformal": 8195,
      "Ġcourant": 8196,
      "Ġnorme": 8197,
      "Ġgaran": 8198,
      "Ġatteint": 8199,
      "Ġstatistics": 8200,
      "Ġdelegations": 8201,
      "IHR": 8202,
      "Ġdealing": 8203,
      "ĠprÃªts": 8204,
      "ĠMexico": 8205,
      "Furthermore": 8206,
      "Stat": 8207,
      "cel": 8208,
      "Ġdig": 8209,
      "Ġdivision": 8210,
      "ensions": 8211,
      "Ġlength": 8212,
      "eline": 8213,
      "ellow": 8214,
      "Ġvou": 8215,
      "ĠPal": 8216,
      "ĠforÃª": 8217,
      "ĠÃ©vid": 8218,
      "Ġexces": 8219,
      "Ã©rance": 8220,
      "Ġagree": 8221,
      "Information": 8222,
      "Ġpossibles": 8223,
      "Ġmenace": 8224,
      "Ġengine": 8225,
      "Alberta": 8226,
      "Ġ1980": 8227,
      "ĠCovenant": 8228,
      "Ġsujets": 8229,
      "ĠAutres": 8230,
      "dessous": 8231,
      "reasury": 8232,
      "Of": 8233,
      "pol": 8234,
      "Ġthings": 8235,
      "isk": 8236,
      "enty": 8237,
      "Ġfire": 8238,
      "Ġfiled": 8239,
      "atrice": 8240,
      "eci": 8241,
      "ett": 8242,
      "ĠSC": 8243,
      "ulta": 8244,
      "essources": 8245,
      "Ġassure": 8246,
      "Ġillegal": 8247,
      "Ġexpand": 8248,
      "Ġadopt": 8249,
      "ĠNova": 8250,
      "Also": 8251,
      "Ġcombus": 8252,
      "ĠrecommandÃ©": 8253,
      "Ġseek": 8254,
      "ĠOfficial": 8255,
      "Ġemergency": 8256,
      "Lorsque": 8257,
      "ĠÃ©chÃ©ant": 8258,
      "Over": 8259,
      "car": 8260,
      "Ã©der": 8261,
      "usage": 8262,
      "uls": 8263,
      "ulaires": 8264,
      "ĠÃ©lect": 8265,
      "essai": 8266,
      "lied": 8267,
      "ĠTari": 8268,
      "stan": 8269,
      "tivities": 8270,
      "Ġaccur": 8271,
      "Ġproduce": 8272,
      "Ġtransmit": 8273,
      "Ġdemocratic": 8274,
      "Ġstay": 8275,
      "Ġplanned": 8276,
      "ciliation": 8277,
      "Ġaffirm": 8278,
      "Ġchefs": 8279,
      "Ġsalari": 8280,
      "Ġtraitements": 8281,
      "Ġadvance": 8282,
      "ĠControl": 8283,
      "Ġsouligne": 8284,
      "ĠDirecteur": 8285,
      "Ġsauv": 8286,
      "Ġvenir": 8287,
      "Ġmusic": 8288,
      "puty": 8289,
      "Ġexcellent": 8290,
      "Ab": 8291,
      "Av": 8292,
      "Voir": 8293,
      "cks": 8294,
      "fond": 8295,
      "oking": 8296,
      "ystem": 8297,
      "tiers": 8298,
      "Ġpath": 8299,
      "Ġconforme": 8300,
      "ults": 8301,
      "Ġextended": 8302,
      "opÃ©ration": 8303,
      "ĠLic": 8304,
      "illing": 8305,
      "ows": 8306,
      "uxemb": 8307,
      "Ġlive": 8308,
      "Ġvois": 8309,
      "ĠDeputy": 8310,
      "ĠconfÃ©rences": 8311,
      "Ġcapable": 8312,
      "Ġinvited": 8313,
      "visi": 8314,
      "uisse": 8315,
      "ĠreprÃ©sentent": 8316,
      "ĠConsult": 8317,
      "Ġsexe": 8318,
      "Ġsenior": 8319,
      "ĠaugmentÃ©": 8320,
      "ypoth": 8321,
      "ĠSchool": 8322,
      "Ġprepare": 8323,
      "Ġcomponents": 8324,
      "Ġsuffisamment": 8325,
      "Ġimmediately": 8326,
      "92": 8327,
      "Br": 8328,
      "Bas": 8329,
      "NG": 8330,
      "Public": 8331,
      "house": 8332,
      "Ã©t": 8333,
      "Ġtas": 8334,
      "Ġborder": 8335,
      "Ġproven": 8336,
      "Ġhospital": 8337,
      "ĠSustainable": 8338,
      "Ġvar": 8339,
      "Ġvital": 8340,
      "ĠgÃ©rer": 8341,
      "ĠdÃ©tention": 8342,
      "ĠRad": 8343,
      "ops": 8344,
      "emment": 8345,
      "ĠarrÃª": 8346,
      "Ġinscr": 8347,
      "Ġsubstitu": 8348,
      "Ġaffili": 8349,
      "ĠintÃ©rie": 8350,
      "Ġinfrastructures": 8351,
      "Ġfourniture": 8352,
      "Ġdiversity": 8353,
      "Ġculturelles": 8354,
      "ocracy": 8355,
      "Ġintroduction": 8356,
      "Ġcinquante": 8357,
      "Ġsusceptibles": 8358,
      "ĠsiÃ¨cle": 8359,
      "FR": 8360,
      "Mme": 8361,
      "cons": 8362,
      "get": 8363,
      "Ã¼": 8364,
      "Ġdet": 8365,
      "Ġdette": 8366,
      "ĠÃ©limin": 8367,
      "ĠexpÃ©rience": 8368,
      "ieuses": 8369,
      "ĠLis": 8370,
      "ĠHong": 8371,
      "Ġrecon": 8372,
      "ĠJoint": 8373,
      "taining": 8374,
      "Ġminister": 8375,
      "ĠChapter": 8376,
      "ologies": 8377,
      "Ġstabil": 8378,
      "ĠLeone": 8379,
      "Ġgestionnaires": 8380,
      "Ġleaders": 8381,
      "ĠcompÃ©ti": 8382,
      "Ġaccepted": 8383,
      "Ġpetite": 8384,
      "ĠÃ©levÃ©s": 8385,
      "ĠintÃ©grÃ©e": 8386,
      "Ġsauf": 8387,
      "Ġcategory": 8388,
      "anguage": 8389,
      "Ġsouhaite": 8390,
      "ĠtÃ©mo": 8391,
      "85": 8392,
      "So": 8393,
      "UB": 8394,
      "acial": 8395,
      "Ġlate": 8396,
      "Ġsty": 8397,
      "Ġsports": 8398,
      "itant": 8399,
      "Ġmid": 8400,
      "Ġrepos": 8401,
      "ĠenquÃªte": 8402,
      "ĠRet": 8403,
      "aper": 8404,
      "Ġuser": 8405,
      "Ġsubventions": 8406,
      "inspec": 8407,
      "ĠorganisÃ©": 8408,
      "2010": 8409,
      "OMPI": 8410,
      "Ġgrave": 8411,
      "ĠdiffÃ©rences": 8412,
      "ĠTraitÃ©": 8413,
      "Ġgarde": 8414,
      "ĠdÃ©finiti": 8415,
      "Ġdesignated": 8416,
      "Ġlicences": 8417,
      "ĠAffaires": 8418,
      "ĠbÃ©nÃ©ficier": 8419,
      "ĠAccess": 8420,
      "Ġcalls": 8421,
      "Ġexportations": 8422,
      "Ġprochaine": 8423,
      "Ġplaced": 8424,
      "ĠcollÃ¨g": 8425,
      "Ġprogressive": 8426,
      "Ġnegative": 8427,
      "Gr": 8428,
      "MS": 8429,
      "Ġrien": 8430,
      "Ġhousing": 8431,
      "trent": 8432,
      "trice": 8433,
      "ĠRoman": 8434,
      "Ġdispar": 8435,
      "pect": 8436,
      "ential": 8437,
      "Ġ85": 8438,
      "Ġkil": 8439,
      "ĠmenÃ©es": 8440,
      "201": 8441,
      "Ġtyp": 8442,
      "ĠconsidÃ©ration": 8443,
      "ĠCooperation": 8444,
      "UNICEF": 8445,
      "Ġcontacts": 8446,
      "Ġdestination": 8447,
      "Ġexploitation": 8448,
      "Ġcorrect": 8449,
      "Ġpertinents": 8450,
      "Ġdefence": 8451,
      "ĠfÃ©licite": 8452,
      "ĠPacifique": 8453,
      "Ġcomprennent": 8454,
      "histoire": 8455,
      "ĠDelegation": 8456,
      "Ġï£µ": 8457,
      "do": 8458,
      "pre": 8459,
      "Ġtool": 8460,
      "riting": 8461,
      "esty": 8462,
      "ĠNGO": 8463,
      "Ġconstruc": 8464,
      "apon": 8465,
      "ĠHon": 8466,
      "exemp": 8467,
      "Ġcore": 8468,
      "ĠprocÃ¨s": 8469,
      "Ã´te": 8470,
      "Ġstations": 8471,
      "accueil": 8472,
      "Ġexamination": 8473,
      "etherlands": 8474,
      "Ġfuel": 8475,
      "Where": 8476,
      "Ġsensi": 8477,
      "Ġallowed": 8478,
      "Ġillustr": 8479,
      "Ġbilat": 8480,
      "approbation": 8481,
      "ĠBrunswick": 8482,
      "Ġcaused": 8483,
      "autorisation": 8484,
      "ĠSociety": 8485,
      "installation": 8486,
      "Cl": 8487,
      "bid": 8488,
      "ument": 8489,
      "zil": 8490,
      "adhÃ©sion": 8491,
      "ĠPCT": 8492,
      "ĠÃ©lÃ¨": 8493,
      "ĠMod": 8494,
      "ĠdÃ©g": 8495,
      "Ġadminister": 8496,
      "ext": 8497,
      "arib": 8498,
      "Ġsubmission": 8499,
      "ĠconcernÃ©s": 8500,
      "Ġcontracts": 8501,
      "Ġfacility": 8502,
      "Report": 8503,
      "Ġcivilian": 8504,
      "Ġfindings": 8505,
      "ka": 8506,
      "uves": 8507,
      "zerb": 8508,
      "ĠtÃ©m": 8509,
      "isition": 8510,
      "Ġfirm": 8511,
      "Ġrepe": 8512,
      "ĠSomal": 8513,
      "Ġgross": 8514,
      "ulated": 8515,
      "ague": 8516,
      "Ġplas": 8517,
      "umes": 8518,
      "itiÃ©": 8519,
      "Ġconserv": 8520,
      "imb": 8521,
      "extÃ©rieur": 8522,
      "ĠExper": 8523,
      "Ġexempl": 8524,
      "ĠdÃ©termination": 8525,
      "Ġapplies": 8526,
      "Ġachieving": 8527,
      "ĠillÃ©g": 8528,
      "Ġincidence": 8529,
      "Ġaccessible": 8530,
      "Ġannounced": 8531,
      "ĠexÃ©cutif": 8532,
      "AI": 8533,
      "CON": 8534,
      "Document": 8535,
      "lant": 8536,
      "esprit": 8537,
      "erie": 8538,
      "rea": 8539,
      "ancy": 8540,
      "oure": 8541,
      "Ġelection": 8542,
      "Ġoc": 8543,
      "sique": 8544,
      "Ġgraph": 8545,
      "Ġgains": 8546,
      "ĠBas": 8547,
      "itim": 8548,
      "itique": 8549,
      "Ġsole": 8550,
      "Ġdisarmament": 8551,
      "Ġsymb": 8552,
      "ĠKy": 8553,
      "Unies": 8554,
      "ĠprÃ©sentÃ©es": 8555,
      "Ġexpl": 8556,
      "ERV": 8557,
      "ĠpremiÃ¨res": 8558,
      "Ġaddressing": 8559,
      "ĠÃ©quitable": 8560,
      "Ġallows": 8561,
      "Ġreconnu": 8562,
      "Ġaccompagn": 8563,
      "liminary": 8564,
      "ĠCalgary": 8565,
      "Gu": 8566,
      "back": 8567,
      "Ġliter": 8568,
      "Ġsom": 8569,
      "istres": 8570,
      "Ġelimin": 8571,
      "Ġwind": 8572,
      "Ġgir": 8573,
      "ĠAv": 8574,
      "ĠIreland": 8575,
      "ĠTV": 8576,
      "berg": 8577,
      "thern": 8578,
      "Internet": 8579,
      "Ġworked": 8580,
      "Ġstable": 8581,
      "argent": 8582,
      "Ġpremiers": 8583,
      "Ġcontrats": 8584,
      "Ġconcr": 8585,
      "ĠconsidÃ¨re": 8586,
      "Ġconduite": 8587,
      "Ã©lÃ©phone": 8588,
      "Ġcontaining": 8589,
      "Ġaway": 8590,
      "Ġpatent": 8591,
      "Ġcopies": 8592,
      "ĠpÃ©nal": 8593,
      "ginal": 8594,
      "Ġpreviously": 8595,
      "Ġidentification": 8596,
      "Ġappointment": 8597,
      "EU": 8598,
      "Her": 8599,
      "col": 8600,
      "arily": 8601,
      "aters": 8602,
      "tements": 8603,
      "ettes": 8604,
      "ĠSa": 8605,
      "Ġunless": 8606,
      "Ġgene": 8607,
      "ĠAST": 8608,
      "idÃ©": 8609,
      "aged": 8610,
      "ĠData": 8611,
      "Ġcomputer": 8612,
      "Ġalign": 8613,
      "new": 8614,
      "Ġinternes": 8615,
      "ĠUK": 8616,
      "Ġarms": 8617,
      "Ġtransformation": 8618,
      "institu": 8619,
      "Ġabuse": 8620,
      "Ġ02": 8621,
      "ifth": 8622,
      "spagne": 8623,
      "Ġclosely": 8624,
      "ĠMillennium": 8625,
      "juin": 8626,
      "Ġauxquels": 8627,
      "Ã³n": 8628,
      "ĠAudit": 8629,
      "adaptation": 8630,
      "Pol": 8631,
      "ester": 8632,
      "Ġsort": 8633,
      "ĠthÃ¨me": 8634,
      "Ġfi": 8635,
      "iling": 8636,
      "Ġriv": 8637,
      "Ġreducing": 8638,
      "erse": 8639,
      "ĠMul": 8640,
      "idrc": 8641,
      "ĠLES": 8642,
      "Ã©rÃ©e": 8643,
      "aties": 8644,
      "Ġchose": 8645,
      "ĠFound": 8646,
      "Ġsea": 8647,
      "ĠInuit": 8648,
      "paragraph": 8649,
      "Ġ63": 8650,
      "Ġstability": 8651,
      "Ġcreating": 8652,
      "ĠSystÃ¨me": 8653,
      "ĠSpain": 8654,
      "Ġcomplaints": 8655,
      "Ġpercentage": 8656,
      "ĠrÃ©serves": 8657,
      "ĠfrontiÃ¨res": 8658,
      "Ġappuyer": 8659,
      "Ġprovinciaux": 8660,
      "ĠÃ©vÃ©nements": 8661,
      "Ġspirit": 8662,
      "AE": 8663,
      "hension": 8664,
      "habitat": 8665,
      "iries": 8666,
      "Ã¶": 8667,
      "Ġdoute": 8668,
      "Ġlot": 8669,
      "eront": 8670,
      "rement": 8671,
      "Ġprosec": 8672,
      "contre": 8673,
      "Ġmontre": 8674,
      "Ġdiffus": 8675,
      "ĠArm": 8676,
      "ORS": 8677,
      "Ġfees": 8678,
      "coming": 8679,
      "affaire": 8680,
      "ĠAppro": 8681,
      "iversi": 8682,
      "ĠRÃ©union": 8683,
      "Ġouvert": 8684,
      "casting": 8685,
      "uffis": 8686,
      "Ġconsumers": 8687,
      "foundland": 8688,
      "Ġcomportement": 8689,
      "visionnement": 8690,
      "SR": 8691,
      "gn": 8692,
      "gov": 8693,
      "Â·": 8694,
      "Ġdevenir": 8695,
      "ĠPL": 8696,
      "ĠMont": 8697,
      "ffec": 8698,
      "ĠrÃ©tabl": 8699,
      "Ġfinance": 8700,
      "Ġobtenus": 8701,
      "Ġ97": 8702,
      "Ġcorps": 8703,
      "Ġadopter": 8704,
      "Paragraph": 8705,
      "1996": 8706,
      "Ġreviewed": 8707,
      "Ġlutter": 8708,
      "ĠquatriÃ¨me": 8709,
      "mployment": 8710,
      "NUD": 8711,
      "Ġidentity": 8712,
      "ĠHeritage": 8713,
      "Ġexpenditure": 8714,
      "ĠAgriculture": 8715,
      "Ġsoftware": 8716,
      "Pri": 8717,
      "pers": 8718,
      "with": 8719,
      "Ġcut": 8720,
      "ĠconÃ§": 8721,
      "Ġquick": 8722,
      "Ġparole": 8723,
      "ĠMD": 8724,
      "agir": 8725,
      "ĠrÃ©ussi": 8726,
      "ĠTO": 8727,
      "ĠTreasury": 8728,
      "itimes": 8729,
      "utation": 8730,
      "Ġ52": 8731,
      "Ġincomp": 8732,
      "atÃ©gie": 8733,
      "Ġtenant": 8734,
      "Ġcourses": 8735,
      "Ġproducteurs": 8736,
      "Amendment": 8737,
      "ĠContract": 8738,
      "Ġprovisional": 8739,
      "ĠtÃ©lÃ©vision": 8740,
      "Ġplaintes": 8741,
      "ĠStatistics": 8742,
      "Ġhoriz": 8743,
      "ĠGenÃ¨ve": 8744,
      "uxembourg": 8745,
      "Cont": 8746,
      "Tel": 8747,
      "].": 8748,
      "oke": 8749,
      "Ġsale": 8750,
      "Ġword": 8751,
      "ĠCan": 8752,
      "ĠSpec": 8753,
      "ĠIf": 8754,
      "ĠchaÃ®": 8755,
      "ĠBro": 8756,
      "Ġconstru": 8757,
      "Ġagency": 8758,
      "Ġ613": 8759,
      "Ġvoix": 8760,
      "Ã§ons": 8761,
      "Ġcarte": 8762,
      "ĠLegal": 8763,
      "Ġbases": 8764,
      "Ġroy": 8765,
      "Ġclean": 8766,
      "Ġconvain": 8767,
      "Ġportion": 8768,
      "oudre": 8769,
      "Ġofficielle": 8770,
      "Ġgarantie": 8771,
      "ĠdÃ©mocratie": 8772,
      "ĠCOMM": 8773,
      "ĠNumÃ©ro": 8774,
      "Ġchoice": 8775,
      "Ġcharacteristics": 8776,
      "Ġremplir": 8777,
      "ĠGuidelines": 8778,
      "ĠsÃ»retÃ©": 8779,
      "delÃł": 8780,
      "Ter": 8781,
      "tiÃ¨me": 8782,
      "ĠSing": 8783,
      "ĠPDF": 8784,
      "bler": 8785,
      "ĠRw": 8786,
      "life": 8787,
      "ĠnotÃ©": 8788,
      "ressions": 8789,
      "Ġhaz": 8790,
      "Ġtransaction": 8791,
      "Ġ62": 8792,
      "ĠvisÃ©es": 8793,
      "Ġcorporation": 8794,
      "Ġmaison": 8795,
      "ova": 8796,
      "Ġutilisant": 8797,
      "Ġbusinesses": 8798,
      "ĠINC": 8799,
      "ĠconsidÃ©rÃ©": 8800,
      "ĠPrime": 8801,
      "Ġtransparency": 8802,
      "Ġpauvres": 8803,
      "ĠSwed": 8804,
      "ĠcommencÃ©": 8805,
      "Ġallocation": 8806,
      "ĠMexique": 8807,
      "Ġcadres": 8808,
      "romotion": 8809,
      "ĠGeneva": 8810,
      "GE": 8811,
      "fit": 8812,
      "west": 8813,
      "Ã©tis": 8814,
      "ourse": 8815,
      "auche": 8816,
      "ĠIran": 8817,
      "Ġmob": 8818,
      "ĠUs": 8819,
      "ĠOR": 8820,
      "ĠInt": 8821,
      "ĠaccroÃ®tre": 8822,
      "Ġregards": 8823,
      "ĠProducts": 8824,
      "ĠrÃ©gimes": 8825,
      "Ġdevra": 8826,
      "pendence": 8827,
      "Ġrooms": 8828,
      "Ġlongue": 8829,
      "Ġresearchers": 8830,
      "Ġlogement": 8831,
      "Ġmeilleures": 8832,
      "cellence": 8833,
      "Ġaccounts": 8834,
      "DR": 8835,
      "LI": 8836,
      "Ġdaily": 8837,
      "environ": 8838,
      "Ġfoot": 8839,
      "Ġcontemp": 8840,
      "ĠPC": 8841,
      "estation": 8842,
      "ĠRules": 8843,
      "vertis": 8844,
      "ĠDo": 8845,
      "Ġacknow": 8846,
      "ĠNetherlands": 8847,
      "ouss": 8848,
      "ĠTPS": 8849,
      "Ġconsumption": 8850,
      "ĠUkraine": 8851,
      "ĠInde": 8852,
      "uds": 8853,
      "ĠProv": 8854,
      "Ġindemn": 8855,
      "Ġincreases": 8856,
      "ĠprÃ©cise": 8857,
      "exposition": 8858,
      "Ġsimpli": 8859,
      "ĠPrince": 8860,
      "Ġimpossible": 8861,
      "Ġsemaines": 8862,
      "ĠdÃ©tail": 8863,
      "Ġclasses": 8864,
      "Ġremained": 8865,
      "Ġlearn": 8866,
      "Ġmessages": 8867,
      "Ġtrafficking": 8868,
      "Ġrespectivement": 8869,
      "âĤ¬âĦ¢": 8870,
      "ĠVictor": 8871,
      "ĠReprÃ©sentant": 8872,
      "Ġadolescents": 8873,
      "93": 8874,
      "Ã©laborer": 8875,
      "orde": 8876,
      "enth": 8877,
      "Ġmac": 8878,
      "ĠCP": 8879,
      "econom": 8880,
      "Ġenough": 8881,
      "ĠPays": 8882,
      "Ã©rÃ©es": 8883,
      "lifer": 8884,
      "ĠTask": 8885,
      "ĠOut": 8886,
      "Ġfacteur": 8887,
      "Ġgrat": 8888,
      "ify": 8889,
      "ĠvisÃ©s": 8890,
      "ĠEnergy": 8891,
      "Ġoffrir": 8892,
      "Ġconsequences": 8893,
      "ĠFrancoph": 8894,
      "ĠÃ©changes": 8895,
      "Ġagriculture": 8896,
      "Ġclimatiques": 8897,
      "ĠIndia": 8898,
      "Ġrefugees": 8899,
      "ĠAuto": 8900,
      "ĠÃ©lÃ¨ves": 8901,
      "rons": 8902,
      "Ġap": 8903,
      "arri": 8904,
      "ilt": 8905,
      "ĠÃ©lector": 8906,
      "Ġexcept": 8907,
      "ĠRC": 8908,
      "treal": 8909,
      "ĠrÃ©clam": 8910,
      "ams": 8911,
      "Ġconstant": 8912,
      "ĠprÃ©jud": 8913,
      "Ġprotected": 8914,
      "Ġpoids": 8915,
      "ĠÃ©tablissement": 8916,
      "ORT": 8917,
      "fully": 8918,
      "ilibre": 8919,
      "ConformÃ©ment": 8920,
      "Ġalia": 8921,
      "ĠPublications": 8922,
      "Ġimmobil": 8923,
      "Ġreligious": 8924,
      "Ġmaintained": 8925,
      "ĠLabour": 8926,
      "Ġadministrations": 8927,
      "ĠsÃ»r": 8928,
      "Ġcompetent": 8929,
      "Ġaccrue": 8930,
      "Ã´mage": 8931,
      "ĠFoundation": 8932,
      "First": 8933,
      "iting": 8934,
      "outi": 8935,
      "itations": 8936,
      "irth": 8937,
      "ĠDi": 8938,
      "ĠNouveau": 8939,
      "ocal": 8940,
      "ĠUse": 8941,
      "ĠHow": 8942,
      "owers": 8943,
      "ĠprÃ©limin": 8944,
      "Ġuses": 8945,
      "Ġusage": 8946,
      "ĠParagraph": 8947,
      "Ġ87": 8948,
      "ift": 8949,
      "Ġthank": 8950,
      "Ã©penses": 8951,
      "ĠspÃ©ciaux": 8952,
      "Ġcampagne": 8953,
      "Ġtrial": 8954,
      "ĠPartnership": 8955,
      "ĠMillÃ©naire": 8956,
      "cosse": 8957,
      "Ġinnovative": 8958,
      "Ġmobile": 8959,
      "Please": 8960,
      "ctic": 8961,
      "greg": 8962,
      "mÃ©": 8963,
      "uÃ©s": 8964,
      "wood": 8965,
      "Ġloin": 8966,
      "Ġelections": 8967,
      "Ġreb": 8968,
      "sifs": 8969,
      "ĠdÃ©cide": 8970,
      "ĠIT": 8971,
      "ĠIss": 8972,
      "ĠNous": 8973,
      "Ġcoast": 8974,
      "ideo": 8975,
      "Ã´ts": 8976,
      "Ġ84": 8977,
      "TIC": 8978,
      "Ġquestionnaire": 8979,
      "ĠÃ©tablis": 8980,
      "Ġcouv": 8981,
      "affect": 8982,
      "Ġrepresented": 8983,
      "assification": 8984,
      "Ġpattern": 8985,
      "ĠPhilipp": 8986,
      "Ġminority": 8987,
      "ĠFisheries": 8988,
      "ĠLimited": 8989,
      "%.": 8990,
      "fait": 8991,
      "lig": 8992,
      "pard": 8993,
      "person": 8994,
      "Ġtrib": 8995,
      "eds": 8996,
      "Ġround": 8997,
      "Ġconting": 8998,
      "tez": 8999,
      "Ġvendre": 9000,
      "charg": 9001,
      "ĠrÃ©ception": 9002,
      "ĠFe": 9003,
      "ĠFran": 9004,
      "ountain": 9005,
      "Ġcommence": 9006,
      "ighting": 9007,
      "Ġrelatively": 9008,
      "ierre": 9009,
      "toral": 9010,
      "Ġcouns": 9011,
      "Ġlocale": 9012,
      "Ġreceiving": 9013,
      "Ġobserver": 9014,
      "Ġengage": 9015,
      "Ġbilateral": 9016,
      "ĠMeas": 9017,
      "ĠStaff": 9018,
      "ĠDirectorate": 9019,
      "Ġtendance": 9020,
      "ĠTurquie": 9021,
      "Ġcommencer": 9022,
      "Ġurgent": 9023,
      "Ġaudio": 9024,
      "Ġcompetitive": 9025,
      "ĠpiÃ¨ces": 9026,
      "Ã©quipement": 9027,
      "Ġfidu": 9028,
      "AA": 9029,
      "Asie": 9030,
      "QuÃ©bec": 9031,
      "itch": 9032,
      "alle": 9033,
      "Ġmagn": 9034,
      "atri": 9035,
      "sively": 9036,
      "oliv": 9037,
      "ĠPra": 9038,
      "ĠPaul": 9039,
      "ĠDar": 9040,
      "Ġbegan": 9041,
      "Ġchron": 9042,
      "Ġimpli": 9043,
      "ĠOver": 9044,
      "Ġpreven": 9045,
      "Ġusually": 9046,
      "Ġcertif": 9047,
      "Ġpression": 9048,
      "Ġhighest": 9049,
      "Ġscale": 9050,
      "URE": 9051,
      "ĠappropriÃ©es": 9052,
      "Ġnaturel": 9053,
      "Ġobserved": 9054,
      "Ġencouraged": 9055,
      "Ġlives": 9056,
      "Ġimage": 9057,
      "Ġtargets": 9058,
      "ĠprÃªt": 9059,
      "Finally": 9060,
      "Ġsettlement": 9061,
      "Moreover": 9062,
      "Cor": 9063,
      "mises": 9064,
      "estim": 9065,
      "ered": 9066,
      "Ġcm": 9067,
      "ouest": 9068,
      "Ġblan": 9069,
      "ĠSommet": 9070,
      "resh": 9071,
      "istent": 9072,
      "Ġprocurement": 9073,
      "Ġtirer": 9074,
      "Ġheure": 9075,
      "Ġnumbers": 9076,
      "ĠYouth": 9077,
      "Ġconstitutionn": 9078,
      "Ġresponses": 9079,
      "plain": 9080,
      "Ġobligatoire": 9081,
      "Ġofferts": 9082,
      "Ġfigurent": 9083,
      "Therefore": 9084,
      "marily": 9085,
      "Ġpuisque": 9086,
      "ĠMedical": 9087,
      "Ġpossession": 9088,
      "Ġsouligner": 9089,
      "Ġvirtu": 9090,
      "Ġcertificat": 9091,
      "Ġnavigation": 9092,
      "ĠÃ©nergÃ©tique": 9093,
      "ĠCustoms": 9094,
      "gie": 9095,
      "mor": 9096,
      "vol": 9097,
      "Ã©ance": 9098,
      "Ġsomme": 9099,
      "Ġdeem": 9100,
      "Ġever": 9101,
      "atur": 9102,
      "Ġbande": 9103,
      "Ġrational": 9104,
      "ĠCette": 9105,
      "Ġtown": 9106,
      "tead": 9107,
      "ull": 9108,
      "Ã¨lement": 9109,
      "tail": 9110,
      "ĠdÃ©fic": 9111,
      "Ġexter": 9112,
[...]
